{
  "version": "1.0",
  "truncation": null,
  "padding": null,
  "added_tokens": [
    {
      "id": 0,
      "content": "[PAD]",
      "single_word": false,
      "lstrip": false,
      "rstrip": false,
      "normalized": false,
      "special": true
    },
    {
      "id": 1,
      "content": "[UNK]",
      "single_word": false,
      "lstrip": false,
      "rstrip": false,
      "normalized": false,
      "special": true
    },
    {
      "id": 2,
      "content": "[CLS]",
      "single_word": false,
      "lstrip": false,
      "rstrip": false,
      "normalized": false,
      "special": true
    },
    {
      "id": 3,
      "content": "[SEP]",
      "single_word": false,
      "lstrip": false,
      "rstrip": false,
      "normalized": false,
      "special": true
    },
    {
      "id": 4,
      "content": "[MASK]",
      "single_word": false,
      "lstrip": false,
      "rstrip": false,
      "normalized": false,
      "special": true
    }
  ],
  "normalizer": {
    "type": "BertNormalizer",
    "clean_text": true,
    "handle_chinese_chars": true,
    "strip_accents": null,
    "lowercase": true
  },
  "pre_tokenizer": {
    "type": "BertPreTokenizer"
  },
  "post_processor": {
    "type": "TemplateProcessing",
    "single": [
      {
        "SpecialToken": {
          "id": "[CLS]",
          "type_id": 0
        }
      },
      {
        "Sequence": {
          "id": "A",
          "type_id": 0
        }
      },
      {
        "SpecialToken": {
          "id": "[SEP]",
          "type_id": 0
        }
      }
    ],
    "pair": [
      {
        "SpecialToken": {
          "id": "[CLS]",
          "type_id": 0
        }
      },
      {
        "Sequence": {
          "id": "A",
          "type_id": 0
        }
      },
      {
        "SpecialToken": {
          "id": "[SEP]",
          "type_id": 0
        }
      },
      {
        "Sequence": {
          "id": "B",
          "type_id": 1
        }
      },
      {
        "SpecialToken": {
          "id": "[SEP]",
          "type_id": 1
        }
      }
    ],
    "special_tokens": {
      "[CLS]": {
        "id": "[CLS]",
        "ids": [
          101
        ],
        "tokens": [
          "[CLS]"
        ]
      },
      "[SEP]": {
        "id": "[SEP]",
        "ids": [
          102
        ],
        "tokens": [
          "[SEP]"
        ]
      }
    }
  },
  "decoder": {
    "type": "WordPiece",
    "prefix": "##",
    "cleanup": true
  },
  "model": {
    "type": "WordPiece",
    "unk_token": "[UNK]",
    "continuing_subword_prefix": "##",
    "max_input_chars_per_word": 100,
    "vocab": {
      "[PAD]": 0,
      "[UNK]": 1,
      "[CLS]": 2,
      "[SEP]": 3,
      "[MASK]": 4,
      "!": 5,
      "\"": 6,
      "#": 7,
      "$": 8,
      "%": 9,
      "&": 10,
      "'": 11,
      "(": 12,
      ")": 13,
      "*": 14,
      "+": 15,
      ",": 16,
      "-": 17,
      ".": 18,
      "/": 19,
      "0": 20,
      "1": 21,
      "2": 22,
      "3": 23,
      "4": 24,
      "5": 25,
      "6": 26,
      "7": 27,
      "8": 28,
      "9": 29,
      ":": 30,
      ";": 31,
      "<": 32,
      "=": 33,
      ">": 34,
      "?": 35,
      "@": 36,
      "[": 37,
      "\\": 38,
      "]": 39,
      "^": 40,
      "_": 41,
      "`": 42,
      "a": 43,
      "b": 44,
      "c": 45,
      "d": 46,
      "e": 47,
      "f": 48,
      "g": 49,
      "h": 50,
      "i": 51,
      "j": 52,
      "k": 53,
      "l": 54,
      "m": 55,
      "n": 56,
      "o": 57,
      "p": 58,
      "q": 59,
      "r": 60,
      "s": 61,
      "t": 62,
      "u": 63,
      "v": 64,
      "w": 65,
      "x": 66,
      "y": 67,
      "z": 68,
      "{": 69,
      "|": 70,
      "}": 71,
      "~": 72,
      "¡": 73,
      "¢": 74,
      "£": 75,
      "¤": 76,
      "¥": 77,
      "¦": 78,
      "§": 79,
      "¨": 80,
      "©": 81,
      "ª": 82,
      "«": 83,
      "¬": 84,
      "®": 85,
      "°": 86,
      "±": 87,
      "²": 88,
      "³": 89,
      "´": 90,
      "µ": 91,
      "¶": 92,
      "·": 93,
      "¹": 94,
      "º": 95,
      "»": 96,
      "¼": 97,
      "½": 98,
      "¾": 99,
      "¿": 100,
      "×": 101,
      "ß": 102,
      "æ": 103,
      "ð": 104,
      "÷": 105,
      "ø": 106,
      "þ": 107,
      "đ": 108,
      "ħ": 109,
      "ı": 110,
      "ł": 111,
      "ŋ": 112,
      "œ": 113,
      "ƒ": 114,
      "ɐ": 115,
      "ɑ": 116,
      "ɒ": 117,
      "ɔ": 118,
      "ɕ": 119,
      "ə": 120,
      "ɛ": 121,
      "ɡ": 122,
      "ɣ": 123,
      "ɨ": 124,
      "ɪ": 125,
      "ɫ": 126,
      "ɬ": 127,
      "ɯ": 128,
      "ɲ": 129,
      "ɴ": 130,
      "ɹ": 131,
      "ɾ": 132,
      "ʀ": 133,
      "ʁ": 134,
      "ʂ": 135,
      "ʃ": 136,
      "ʉ": 137,
      "ʊ": 138,
      "ʋ": 139,
      "ʌ": 140,
      "ʎ": 141,
      "ʐ": 142,
      "ʑ": 143,
      "ʒ": 144,
      "ʔ": 145,
      "ʰ": 146,
      "ʲ": 147,
      "ʳ": 148,
      "ʷ": 149,
      "ʸ": 150,
      "ʻ": 151,
      "ʼ": 152,
      "ʾ": 153,
      "ʿ": 154,
      "ˈ": 155,
      "ː": 156,
      "ˡ": 157,
      "ˢ": 158,
      "ˣ": 159,
      "ˤ": 160,
      "α": 161,
      "β": 162,
      "γ": 163,
      "δ": 164,
      "ε": 165,
      "ζ": 166,
      "η": 167,
      "θ": 168,
      "ι": 169,
      "κ": 170,
      "λ": 171,
      "μ": 172,
      "ν": 173,
      "ξ": 174,
      "ο": 175,
      "π": 176,
      "ρ": 177,
      "ς": 178,
      "σ": 179,
      "τ": 180,
      "υ": 181,
      "φ": 182,
      "χ": 183,
      "ψ": 184,
      "ω": 185,
      "а": 186,
      "б": 187,
      "в": 188,
      "г": 189,
      "д": 190,
      "е": 191,
      "ж": 192,
      "з": 193,
      "и": 194,
      "к": 195,
      "л": 196,
      "м": 197,
      "н": 198,
      "о": 199,
      "п": 200,
      "р": 201,
      "с": 202,
      "т": 203,
      "у": 204,
      "ф": 205,
      "х": 206,
      "ц": 207,
      "ч": 208,
      "ш": 209,
      "щ": 210,
      "ъ": 211,
      "ы": 212,
      "ь": 213,
      "э": 214,
      "ю": 215,
      "я": 216,
      "ђ": 217,
      "є": 218,
      "і": 219,
      "ј": 220,
      "љ": 221,
      "њ": 222,
      "ћ": 223,
      "ӏ": 224,
      "ա": 225,
      "բ": 226,
      "գ": 227,
      "դ": 228,
      "ե": 229,
      "թ": 230,
      "ի": 231,
      "լ": 232,
      "կ": 233,
      "հ": 234,
      "մ": 235,
      "յ": 236,
      "ն": 237,
      "ո": 238,
      "պ": 239,
      "ս": 240,
      "վ": 241,
      "տ": 242,
      "ր": 243,
      "ւ": 244,
      "ք": 245,
      "־": 246,
      "א": 247,
      "ב": 248,
      "ג": 249,
      "ד": 250,
      "ה": 251,
      "ו": 252,
      "ז": 253,
      "ח": 254,
      "ט": 255,
      "י": 256,
      "ך": 257,
      "כ": 258,
      "ל": 259,
      "ם": 260,
      "מ": 261,
      "ן": 262,
      "נ": 263,
      "ס": 264,
      "ע": 265,
      "ף": 266,
      "פ": 267,
      "ץ": 268,
      "צ": 269,
      "ק": 270,
      "ר": 271,
      "ש": 272,
      "ת": 273,
      "،": 274,
      "ء": 275,
      "ا": 276,
      "ب": 277,
      "ة": 278,
      "ت": 279,
      "ث": 280,
      "ج": 281,
      "ح": 282,
      "خ": 283,
      "د": 284,
      "ذ": 285,
      "ر": 286,
      "ز": 287,
      "س": 288,
      "ش": 289,
      "ص": 290,
      "ض": 291,
      "ط": 292,
      "ظ": 293,
      "ع": 294,
      "غ": 295,
      "ـ": 296,
      "ف": 297,
      "ق": 298,
      "ك": 299,
      "ل": 300,
      "م": 301,
      "ن": 302,
      "ه": 303,
      "و": 304,
      "ى": 305,
      "ي": 306,
      "ٹ": 307,
      "پ": 308,
      "چ": 309,
      "ک": 310,
      "گ": 311,
      "ں": 312,
      "ھ": 313,
      "ہ": 314,
      "ی": 315,
      "ے": 316,
      "अ": 317,
      "आ": 318,
      "उ": 319,
      "ए": 320,
      "क": 321,
      "ख": 322,
      "ग": 323,
      "च": 324,
      "ज": 325,
      "ट": 326,
      "ड": 327,
      "ण": 328,
      "त": 329,
      "थ": 330,
      "द": 331,
      "ध": 332,
      "न": 333,
      "प": 334,
      "ब": 335,
      "भ": 336,
      "म": 337,
      "य": 338,
      "र": 339,
      "ल": 340,
      "व": 341,
      "श": 342,
      "ष": 343,
      "स": 344,
      "ह": 345,
      "ा": 346,
      "ि": 347,
      "ी": 348,
      "ो": 349,
      "।": 350,
      "॥": 351,
      "ং": 352,
      "অ": 353,
      "আ": 354,
      "ই": 355,
      "উ": 356,
      "এ": 357,
      "ও": 358,
      "ক": 359,
      "খ": 360,
      "গ": 361,
      "চ": 362,
      "ছ": 363,
      "জ": 364,
      "ট": 365,
      "ড": 366,
      "ণ": 367,
      "ত": 368,
      "থ": 369,
      "দ": 370,
      "ধ": 371,
      "ন": 372,
      "প": 373,
      "ব": 374,
      "ভ": 375,
      "ম": 376,
      "য": 377,
      "র": 378,
      "ল": 379,
      "শ": 380,
      "ষ": 381,
      "স": 382,
      "হ": 383,
      "া": 384,
      "ি": 385,
      "ী": 386,
      "ে": 387,
      "க": 388,
      "ச": 389,
      "ட": 390,
      "த": 391,
      "ந": 392,
      "ன": 393,
      "ப": 394,
      "ம": 395,
      "ய": 396,
      "ர": 397,
      "ல": 398,
      "ள": 399,
      "வ": 400,
      "ா": 401,
      "ி": 402,
      "ு": 403,
      "ே": 404,
      "ை": 405,
      "ನ": 406,
      "ರ": 407,
      "ಾ": 408,
      "ක": 409,
      "ය": 410,
      "ර": 411,
      "ල": 412,
      "ව": 413,
      "ා": 414,
      "ก": 415,
      "ง": 416,
      "ต": 417,
      "ท": 418,
      "น": 419,
      "พ": 420,
      "ม": 421,
      "ย": 422,
      "ร": 423,
      "ล": 424,
      "ว": 425,
      "ส": 426,
      "อ": 427,
      "า": 428,
      "เ": 429,
      "་": 430,
      "།": 431,
      "ག": 432,
      "ང": 433,
      "ད": 434,
      "ན": 435,
      "པ": 436,
      "བ": 437,
      "མ": 438,
      "འ": 439,
      "ར": 440,
      "ལ": 441,
      "ས": 442,
      "မ": 443,
      "ა": 444,
      "ბ": 445,
      "გ": 446,
      "დ": 447,
      "ე": 448,
      "ვ": 449,
      "თ": 450,
      "ი": 451,
      "კ": 452,
      "ლ": 453,
      "მ": 454,
      "ნ": 455,
      "ო": 456,
      "რ": 457,
      "ს": 458,
      "ტ": 459,
      "უ": 460,
      "ᄀ": 461,
      "ᄂ": 462,
      "ᄃ": 463,
      "ᄅ": 464,
      "ᄆ": 465,
      "ᄇ": 466,
      "ᄉ": 467,
      "ᄊ": 468,
      "ᄋ": 469,
      "ᄌ": 470,
      "ᄎ": 471,
      "ᄏ": 472,
      "ᄐ": 473,
      "ᄑ": 474,
      "ᄒ": 475,
      "ᅡ": 476,
      "ᅢ": 477,
      "ᅥ": 478,
      "ᅦ": 479,
      "ᅧ": 480,
      "ᅩ": 481,
      "ᅪ": 482,
      "ᅭ": 483,
      "ᅮ": 484,
      "ᅯ": 485,
      "ᅲ": 486,
      "ᅳ": 487,
      "ᅴ": 488,
      "ᅵ": 489,
      "ᆨ": 490,
      "ᆫ": 491,
      "ᆯ": 492,
      "ᆷ": 493,
      "ᆸ": 494,
      "ᆼ": 495,
      "ᴬ": 496,
      "ᴮ": 497,
      "ᴰ": 498,
      "ᴵ": 499,
      "ᴺ": 500,
      "ᵀ": 501,
      "ᵃ": 502,
      "ᵇ": 503,
      "ᵈ": 504,
      "ᵉ": 505,
      "ᵍ": 506,
      "ᵏ": 507,
      "ᵐ": 508,
      "ᵒ": 509,
      "ᵖ": 510,
      "ᵗ": 511,
      "ᵘ": 512,
      "ᵢ": 513,
      "ᵣ": 514,
      "ᵤ": 515,
      "ᵥ": 516,
      "ᶜ": 517,
      "ᶠ": 518,
      "‐": 519,
      "‑": 520,
      "‒": 521,
      "–": 522,
      "—": 523,
      "―": 524,
      "‖": 525,
      "‘": 526,
      "’": 527,
      "‚": 528,
      "“": 529,
      "”": 530,
      "„": 531,
      "†": 532,
      "‡": 533,
      "•": 534,
      "…": 535,
      "‰": 536,
      "′": 537,
      "″": 538,
      "›": 539,
      "‿": 540,
      "⁄": 541,
      "⁰": 542,
      "ⁱ": 543,
      "⁴": 544,
      "⁵": 545,
      "⁶": 546,
      "⁷": 547,
      "⁸": 548,
      "⁹": 549,
      "⁺": 550,
      "⁻": 551,
      "ⁿ": 552,
      "₀": 553,
      "₁": 554,
      "₂": 555,
      "₃": 556,
      "₄": 557,
      "₅": 558,
      "₆": 559,
      "₇": 560,
      "₈": 561,
      "₉": 562,
      "₊": 563,
      "₍": 564,
      "₎": 565,
      "ₐ": 566,
      "ₑ": 567,
      "ₒ": 568,
      "ₓ": 569,
      "ₕ": 570,
      "ₖ": 571,
      "ₗ": 572,
      "ₘ": 573,
      "ₙ": 574,
      "ₚ": 575,
      "ₛ": 576,
      "ₜ": 577,
      "₤": 578,
      "₩": 579,
      "€": 580,
      "₱": 581,
      "₹": 582,
      "ℓ": 583,
      "№": 584,
      "ℝ": 585,
      "™": 586,
      "⅓": 587,
      "⅔": 588,
      "←": 589,
      "↑": 590,
      "→": 591,
      "↓": 592,
      "↔": 593,
      "↦": 594,
      "⇄": 595,
      "⇌": 596,
      "⇒": 597,
      "∂": 598,
      "∅": 599,
      "∆": 600,
      "∇": 601,
      "∈": 602,
      "−": 603,
      "∗": 604,
      "∘": 605,
      "√": 606,
      "∞": 607,
      "∧": 608,
      "∨": 609,
      "∩": 610,
      "∪": 611,
      "≈": 612,
      "≡": 613,
      "≤": 614,
      "≥": 615,
      "⊂": 616,
      "⊆": 617,
      "⊕": 618,
      "⊗": 619,
      "⋅": 620,
      "─": 621,
      "│": 622,
      "■": 623,
      "▪": 624,
      "●": 625,
      "★": 626,
      "☆": 627,
      "☉": 628,
      "♠": 629,
      "♣": 630,
      "♥": 631,
      "♦": 632,
      "♭": 633,
      "♯": 634,
      "⟨": 635,
      "⟩": 636,
      "ⱼ": 637,
      "⺩": 638,
      "⺼": 639,
      "⽥": 640,
      "、": 641,
      "。": 642,
      "〈": 643,
      "〉": 644,
      "《": 645,
      "》": 646,
      "「": 647,
      "」": 648,
      "『": 649,
      "』": 650,
      "〜": 651,
      "あ": 652,
      "い": 653,
      "う": 654,
      "え": 655,
      "お": 656,
      "か": 657,
      "き": 658,
      "く": 659,
      "け": 660,
      "こ": 661,
      "さ": 662,
      "し": 663,
      "す": 664,
      "せ": 665,
      "そ": 666,
      "た": 667,
      "ち": 668,
      "っ": 669,
      "つ": 670,
      "て": 671,
      "と": 672,
      "な": 673,
      "に": 674,
      "ぬ": 675,
      "ね": 676,
      "の": 677,
      "は": 678,
      "ひ": 679,
      "ふ": 680,
      "へ": 681,
      "ほ": 682,
      "ま": 683,
      "み": 684,
      "む": 685,
      "め": 686,
      "も": 687,
      "や": 688,
      "ゆ": 689,
      "よ": 690,
      "ら": 691,
      "り": 692,
      "る": 693,
      "れ": 694,
      "ろ": 695,
      "を": 696,
      "ん": 697,
      "ァ": 698,
      "ア": 699,
      "ィ": 700,
      "イ": 701,
      "ウ": 702,
      "ェ": 703,
      "エ": 704,
      "オ": 705,
      "カ": 706,
      "キ": 707,
      "ク": 708,
      "ケ": 709,
      "コ": 710,
      "サ": 711,
      "シ": 712,
      "ス": 713,
      "セ": 714,
      "タ": 715,
      "チ": 716,
      "ッ": 717,
      "ツ": 718,
      "テ": 719,
      "ト": 720,
      "ナ": 721,
      "ニ": 722,
      "ノ": 723,
      "ハ": 724,
      "ヒ": 725,
      "フ": 726,
      "ヘ": 727,
      "ホ": 728,
      "マ": 729,
      "ミ": 730,
      "ム": 731,
      "メ": 732,
      "モ": 733,
      "ャ": 734,
      "ュ": 735,
      "ョ": 736,
      "ラ": 737,
      "リ": 738,
      "ル": 739,
      "レ": 740,
      "ロ": 741,
      "ワ": 742,
      "ン": 743,
      "・": 744,
      "ー": 745,
      "一": 746,
      "三": 747,
      "上": 748,
      "下": 749,
      "不": 750,
      "世": 751,
      "中": 752,
      "主": 753,
      "久": 754,
      "之": 755,
      "也": 756,
      "事": 757,
      "二": 758,
      "五": 759,
      "井": 760,
      "京": 761,
      "人": 762,
      "亻": 763,
      "仁": 764,
      "介": 765,
      "代": 766,
      "仮": 767,
      "伊": 768,
      "会": 769,
      "佐": 770,
      "侍": 771,
      "保": 772,
      "信": 773,
      "健": 774,
      "元": 775,
      "光": 776,
      "八": 777,
      "公": 778,
      "内": 779,
      "出": 780,
      "分": 781,
      "前": 782,
      "劉": 783,
      "力": 784,
      "加": 785,
      "勝": 786,
      "北": 787,
      "区": 788,
      "十": 789,
      "千": 790,
      "南": 791,
      "博": 792,
      "原": 793,
      "口": 794,
      "古": 795,
      "史": 796,
      "司": 797,
      "合": 798,
      "吉": 799,
      "同": 800,
      "名": 801,
      "和": 802,
      "囗": 803,
      "四": 804,
      "国": 805,
      "國": 806,
      "土": 807,
      "地": 808,
      "坂": 809,
      "城": 810,
      "堂": 811,
      "場": 812,
      "士": 813,
      "夏": 814,
      "外": 815,
      "大": 816,
      "天": 817,
      "太": 818,
      "夫": 819,
      "奈": 820,
      "女": 821,
      "子": 822,
      "学": 823,
      "宀": 824,
      "宇": 825,
      "安": 826,
      "宗": 827,
      "定": 828,
      "宣": 829,
      "宮": 830,
      "家": 831,
      "宿": 832,
      "寺": 833,
      "將": 834,
      "小": 835,
      "尚": 836,
      "山": 837,
      "岡": 838,
      "島": 839,
      "崎": 840,
      "川": 841,
      "州": 842,
      "巿": 843,
      "帝": 844,
      "平": 845,
      "年": 846,
      "幸": 847,
      "广": 848,
      "弘": 849,
      "張": 850,
      "彳": 851,
      "後": 852,
      "御": 853,
      "德": 854,
      "心": 855,
      "忄": 856,
      "志": 857,
      "忠": 858,
      "愛": 859,
      "成": 860,
      "我": 861,
      "戦": 862,
      "戸": 863,
      "手": 864,
      "扌": 865,
      "政": 866,
      "文": 867,
      "新": 868,
      "方": 869,
      "日": 870,
      "明": 871,
      "星": 872,
      "春": 873,
      "昭": 874,
      "智": 875,
      "曲": 876,
      "書": 877,
      "月": 878,
      "有": 879,
      "朝": 880,
      "木": 881,
      "本": 882,
      "李": 883,
      "村": 884,
      "東": 885,
      "松": 886,
      "林": 887,
      "森": 888,
      "楊": 889,
      "樹": 890,
      "橋": 891,
      "歌": 892,
      "止": 893,
      "正": 894,
      "武": 895,
      "比": 896,
      "氏": 897,
      "民": 898,
      "水": 899,
      "氵": 900,
      "氷": 901,
      "永": 902,
      "江": 903,
      "沢": 904,
      "河": 905,
      "治": 906,
      "法": 907,
      "海": 908,
      "清": 909,
      "漢": 910,
      "瀬": 911,
      "火": 912,
      "版": 913,
      "犬": 914,
      "王": 915,
      "生": 916,
      "田": 917,
      "男": 918,
      "疒": 919,
      "発": 920,
      "白": 921,
      "的": 922,
      "皇": 923,
      "目": 924,
      "相": 925,
      "省": 926,
      "真": 927,
      "石": 928,
      "示": 929,
      "社": 930,
      "神": 931,
      "福": 932,
      "禾": 933,
      "秀": 934,
      "秋": 935,
      "空": 936,
      "立": 937,
      "章": 938,
      "竹": 939,
      "糹": 940,
      "美": 941,
      "義": 942,
      "耳": 943,
      "良": 944,
      "艹": 945,
      "花": 946,
      "英": 947,
      "華": 948,
      "葉": 949,
      "藤": 950,
      "行": 951,
      "街": 952,
      "西": 953,
      "見": 954,
      "訁": 955,
      "語": 956,
      "谷": 957,
      "貝": 958,
      "貴": 959,
      "車": 960,
      "軍": 961,
      "辶": 962,
      "道": 963,
      "郎": 964,
      "郡": 965,
      "部": 966,
      "都": 967,
      "里": 968,
      "野": 969,
      "金": 970,
      "鈴": 971,
      "镇": 972,
      "長": 973,
      "門": 974,
      "間": 975,
      "阝": 976,
      "阿": 977,
      "陳": 978,
      "陽": 979,
      "雄": 980,
      "青": 981,
      "面": 982,
      "風": 983,
      "食": 984,
      "香": 985,
      "馬": 986,
      "高": 987,
      "龍": 988,
      "龸": 989,
      "ﬁ": 990,
      "ﬂ": 991,
      "！": 992,
      "（": 993,
      "）": 994,
      "，": 995,
      "－": 996,
      "．": 997,
      "／": 998,
      "：": 999,
      "？": 1000,
      "～": 1001,
      "the": 1002,
      "of": 1003,
      "and": 1004,
      "in": 1005,
      "to": 1006,
      "was": 1007,
      "he": 1008,
      "is": 1009,
      "as": 1010,
      "for": 1011,
      "on": 1012,
      "with": 1013,
      "that": 1014,
      "it": 1015,
      "his": 1016,
      "by": 1017,
      "at": 1018,
      "from": 1019,
      "her": 1020,
      "##s": 1021,
      "she": 1022,
      "you": 1023,
      "had": 1024,
      "an": 1025,
      "were": 1026,
      "but": 1027,
      "be": 1028,
      "this": 1029,
      "are": 1030,
      "not": 1031,
      "my": 1032,
      "they": 1033,
      "one": 1034,
      "which": 1035,
      "or": 1036,
      "have": 1037,
      "him": 1038,
      "me": 1039,
      "first": 1040,
      "all": 1041,
      "also": 1042,
      "their": 1043,
      "has": 1044,
      "up": 1045,
      "who": 1046,
      "out": 1047,
      "been": 1048,
      "when": 1049,
      "after": 1050,
      "there": 1051,
      "into": 1052,
      "new": 1053,
      "two": 1054,
      "its": 1055,
      "##a": 1056,
      "time": 1057,
      "would": 1058,
      "no": 1059,
      "what": 1060,
      "about": 1061,
      "said": 1062,
      "we": 1063,
      "over": 1064,
      "then": 1065,
      "other": 1066,
      "so": 1067,
      "more": 1068,
      "##e": 1069,
      "can": 1070,
      "if": 1071,
      "like": 1072,
      "back": 1073,
      "them": 1074,
      "only": 1075,
      "some": 1076,
      "could": 1077,
      "##i": 1078,
      "where": 1079,
      "just": 1080,
      "##ing": 1081,
      "during": 1082,
      "before": 1083,
      "##n": 1084,
      "do": 1085,
      "##o": 1086,
      "made": 1087,
      "school": 1088,
      "through": 1089,
      "than": 1090,
      "now": 1091,
      "years": 1092,
      "most": 1093,
      "world": 1094,
      "may": 1095,
      "between": 1096,
      "down": 1097,
      "well": 1098,
      "three": 1099,
      "##d": 1100,
      "year": 1101,
      "while": 1102,
      "will": 1103,
      "##ed": 1104,
      "##r": 1105,
      "##y": 1106,
      "later": 1107,
      "##t": 1108,
      "city": 1109,
      "under": 1110,
      "around": 1111,
      "did": 1112,
      "such": 1113,
      "being": 1114,
      "used": 1115,
      "state": 1116,
      "people": 1117,
      "part": 1118,
      "know": 1119,
      "against": 1120,
      "your": 1121,
      "many": 1122,
      "second": 1123,
      "university": 1124,
      "both": 1125,
      "national": 1126,
      "##er": 1127,
      "these": 1128,
      "don": 1129,
      "known": 1130,
      "off": 1131,
      "way": 1132,
      "until": 1133,
      "re": 1134,
      "how": 1135,
      "even": 1136,
      "get": 1137,
      "head": 1138,
      "...": 1139,
      "didn": 1140,
      "##ly": 1141,
      "team": 1142,
      "american": 1143,
      "because": 1144,
      "de": 1145,
      "##l": 1146,
      "born": 1147,
      "united": 1148,
      "film": 1149,
      "since": 1150,
      "still": 1151,
      "long": 1152,
      "work": 1153,
      "south": 1154,
      "us": 1155,
      "became": 1156,
      "any": 1157,
      "high": 1158,
      "again": 1159,
      "day": 1160,
      "family": 1161,
      "see": 1162,
      "right": 1163,
      "man": 1164,
      "eyes": 1165,
      "house": 1166,
      "season": 1167,
      "war": 1168,
      "states": 1169,
      "including": 1170,
      "took": 1171,
      "life": 1172,
      "north": 1173,
      "same": 1174,
      "each": 1175,
      "called": 1176,
      "name": 1177,
      "much": 1178,
      "place": 1179,
      "however": 1180,
      "go": 1181,
      "four": 1182,
      "group": 1183,
      "another": 1184,
      "found": 1185,
      "won": 1186,
      "area": 1187,
      "here": 1188,
      "going": 1189,
      "10": 1190,
      "away": 1191,
      "series": 1192,
      "left": 1193,
      "home": 1194,
      "music": 1195,
      "best": 1196,
      "make": 1197,
      "hand": 1198,
      "number": 1199,
      "company": 1200,
      "several": 1201,
      "never": 1202,
      "last": 1203,
      "john": 1204,
      "000": 1205,
      "very": 1206,
      "album": 1207,
      "take": 1208,
      "end": 1209,
      "good": 1210,
      "too": 1211,
      "following": 1212,
      "released": 1213,
      "game": 1214,
      "played": 1215,
      "little": 1216,
      "began": 1217,
      "district": 1218,
      "##m": 1219,
      "old": 1220,
      "want": 1221,
      "those": 1222,
      "side": 1223,
      "held": 1224,
      "own": 1225,
      "early": 1226,
      "county": 1227,
      "ll": 1228,
      "league": 1229,
      "use": 1230,
      "west": 1231,
      "##u": 1232,
      "face": 1233,
      "think": 1234,
      "##es": 1235,
      "2010": 1236,
      "government": 1237,
      "##h": 1238,
      "march": 1239,
      "came": 1240,
      "small": 1241,
      "general": 1242,
      "town": 1243,
      "june": 1244,
      "##on": 1245,
      "line": 1246,
      "based": 1247,
      "something": 1248,
      "##k": 1249,
      "september": 1250,
      "thought": 1251,
      "looked": 1252,
      "along": 1253,
      "international": 1254,
      "2011": 1255,
      "air": 1256,
      "july": 1257,
      "club": 1258,
      "went": 1259,
      "january": 1260,
      "october": 1261,
      "our": 1262,
      "august": 1263,
      "april": 1264,
      "york": 1265,
      "12": 1266,
      "few": 1267,
      "2012": 1268,
      "2008": 1269,
      "east": 1270,
      "show": 1271,
      "member": 1272,
      "college": 1273,
      "2009": 1274,
      "father": 1275,
      "public": 1276,
      "##us": 1277,
      "come": 1278,
      "men": 1279,
      "five": 1280,
      "set": 1281,
      "station": 1282,
      "church": 1283,
      "##c": 1284,
      "next": 1285,
      "former": 1286,
      "november": 1287,
      "room": 1288,
      "party": 1289,
      "located": 1290,
      "december": 1291,
      "2013": 1292,
      "age": 1293,
      "got": 1294,
      "2007": 1295,
      "##g": 1296,
      "system": 1297,
      "let": 1298,
      "love": 1299,
      "2006": 1300,
      "though": 1301,
      "every": 1302,
      "2014": 1303,
      "look": 1304,
      "song": 1305,
      "water": 1306,
      "century": 1307,
      "without": 1308,
      "body": 1309,
      "black": 1310,
      "night": 1311,
      "within": 1312,
      "great": 1313,
      "women": 1314,
      "single": 1315,
      "ve": 1316,
      "building": 1317,
      "large": 1318,
      "population": 1319,
      "river": 1320,
      "named": 1321,
      "band": 1322,
      "white": 1323,
      "started": 1324,
      "##an": 1325,
      "once": 1326,
      "15": 1327,
      "20": 1328,
      "should": 1329,
      "18": 1330,
      "2015": 1331,
      "service": 1332,
      "top": 1333,
      "built": 1334,
      "british": 1335,
      "open": 1336,
      "death": 1337,
      "king": 1338,
      "moved": 1339,
      "local": 1340,
      "times": 1341,
      "children": 1342,
      "february": 1343,
      "book": 1344,
      "why": 1345,
      "11": 1346,
      "door": 1347,
      "need": 1348,
      "president": 1349,
      "order": 1350,
      "final": 1351,
      "road": 1352,
      "wasn": 1353,
      "although": 1354,
      "due": 1355,
      "major": 1356,
      "died": 1357,
      "village": 1358,
      "third": 1359,
      "knew": 1360,
      "2016": 1361,
      "asked": 1362,
      "turned": 1363,
      "st": 1364,
      "wanted": 1365,
      "say": 1366,
      "##p": 1367,
      "together": 1368,
      "received": 1369,
      "main": 1370,
      "son": 1371,
      "served": 1372,
      "different": 1373,
      "##en": 1374,
      "behind": 1375,
      "himself": 1376,
      "felt": 1377,
      "members": 1378,
      "power": 1379,
      "football": 1380,
      "law": 1381,
      "voice": 1382,
      "play": 1383,
      "##in": 1384,
      "near": 1385,
      "park": 1386,
      "history": 1387,
      "30": 1388,
      "having": 1389,
      "2005": 1390,
      "16": 1391,
      "##man": 1392,
      "saw": 1393,
      "mother": 1394,
      "##al": 1395,
      "army": 1396,
      "point": 1397,
      "front": 1398,
      "help": 1399,
      "english": 1400,
      "street": 1401,
      "art": 1402,
      "late": 1403,
      "hands": 1404,
      "games": 1405,
      "award": 1406,
      "##ia": 1407,
      "young": 1408,
      "14": 1409,
      "put": 1410,
      "published": 1411,
      "country": 1412,
      "division": 1413,
      "across": 1414,
      "told": 1415,
      "13": 1416,
      "often": 1417,
      "ever": 1418,
      "french": 1419,
      "london": 1420,
      "center": 1421,
      "six": 1422,
      "red": 1423,
      "2017": 1424,
      "led": 1425,
      "days": 1426,
      "include": 1427,
      "light": 1428,
      "25": 1429,
      "find": 1430,
      "tell": 1431,
      "among": 1432,
      "species": 1433,
      "really": 1434,
      "according": 1435,
      "central": 1436,
      "half": 1437,
      "2004": 1438,
      "form": 1439,
      "original": 1440,
      "gave": 1441,
      "office": 1442,
      "making": 1443,
      "enough": 1444,
      "lost": 1445,
      "full": 1446,
      "opened": 1447,
      "must": 1448,
      "included": 1449,
      "live": 1450,
      "given": 1451,
      "german": 1452,
      "player": 1453,
      "run": 1454,
      "business": 1455,
      "woman": 1456,
      "community": 1457,
      "cup": 1458,
      "might": 1459,
      "million": 1460,
      "land": 1461,
      "2000": 1462,
      "court": 1463,
      "development": 1464,
      "17": 1465,
      "short": 1466,
      "round": 1467,
      "ii": 1468,
      "km": 1469,
      "seen": 1470,
      "class": 1471,
      "story": 1472,
      "always": 1473,
      "become": 1474,
      "sure": 1475,
      "research": 1476,
      "almost": 1477,
      "director": 1478,
      "council": 1479,
      "la": 1480,
      "##2": 1481,
      "career": 1482,
      "things": 1483,
      "using": 1484,
      "island": 1485,
      "##z": 1486,
      "couldn": 1487,
      "car": 1488,
      "##is": 1489,
      "24": 1490,
      "close": 1491,
      "force": 1492,
      "##1": 1493,
      "better": 1494,
      "free": 1495,
      "support": 1496,
      "control": 1497,
      "field": 1498,
      "students": 1499,
      "2003": 1500,
      "education": 1501,
      "married": 1502,
      "##b": 1503,
      "nothing": 1504,
      "worked": 1505,
      "others": 1506,
      "record": 1507,
      "big": 1508,
      "inside": 1509,
      "level": 1510,
      "anything": 1511,
      "continued": 1512,
      "give": 1513,
      "james": 1514,
      "##3": 1515,
      "military": 1516,
      "established": 1517,
      "non": 1518,
      "returned": 1519,
      "feel": 1520,
      "does": 1521,
      "title": 1522,
      "written": 1523,
      "thing": 1524,
      "feet": 1525,
      "william": 1526,
      "far": 1527,
      "co": 1528,
      "association": 1529,
      "hard": 1530,
      "already": 1531,
      "2002": 1532,
      "##ra": 1533,
      "championship": 1534,
      "human": 1535,
      "western": 1536,
      "100": 1537,
      "##na": 1538,
      "department": 1539,
      "hall": 1540,
      "role": 1541,
      "various": 1542,
      "production": 1543,
      "21": 1544,
      "19": 1545,
      "heart": 1546,
      "2001": 1547,
      "living": 1548,
      "fire": 1549,
      "version": 1550,
      "##ers": 1551,
      "##f": 1552,
      "television": 1553,
      "royal": 1554,
      "##4": 1555,
      "produced": 1556,
      "working": 1557,
      "act": 1558,
      "case": 1559,
      "society": 1560,
      "region": 1561,
      "present": 1562,
      "radio": 1563,
      "period": 1564,
      "looking": 1565,
      "least": 1566,
      "total": 1567,
      "keep": 1568,
      "england": 1569,
      "wife": 1570,
      "program": 1571,
      "per": 1572,
      "brother": 1573,
      "mind": 1574,
      "special": 1575,
      "22": 1576,
      "##le": 1577,
      "am": 1578,
      "works": 1579,
      "soon": 1580,
      "##6": 1581,
      "political": 1582,
      "george": 1583,
      "services": 1584,
      "taken": 1585,
      "created": 1586,
      "##7": 1587,
      "further": 1588,
      "able": 1589,
      "reached": 1590,
      "david": 1591,
      "union": 1592,
      "joined": 1593,
      "upon": 1594,
      "done": 1595,
      "important": 1596,
      "social": 1597,
      "information": 1598,
      "either": 1599,
      "##ic": 1600,
      "##x": 1601,
      "appeared": 1602,
      "position": 1603,
      "ground": 1604,
      "lead": 1605,
      "rock": 1606,
      "dark": 1607,
      "election": 1608,
      "23": 1609,
      "board": 1610,
      "france": 1611,
      "hair": 1612,
      "course": 1613,
      "arms": 1614,
      "site": 1615,
      "police": 1616,
      "girl": 1617,
      "instead": 1618,
      "real": 1619,
      "sound": 1620,
      "##v": 1621,
      "words": 1622,
      "moment": 1623,
      "##te": 1624,
      "someone": 1625,
      "##8": 1626,
      "summer": 1627,
      "project": 1628,
      "announced": 1629,
      "san": 1630,
      "less": 1631,
      "wrote": 1632,
      "past": 1633,
      "followed": 1634,
      "##5": 1635,
      "blue": 1636,
      "founded": 1637,
      "al": 1638,
      "finally": 1639,
      "india": 1640,
      "taking": 1641,
      "records": 1642,
      "america": 1643,
      "##ne": 1644,
      "1999": 1645,
      "design": 1646,
      "considered": 1647,
      "northern": 1648,
      "god": 1649,
      "stop": 1650,
      "battle": 1651,
      "toward": 1652,
      "european": 1653,
      "outside": 1654,
      "described": 1655,
      "track": 1656,
      "today": 1657,
      "playing": 1658,
      "language": 1659,
      "28": 1660,
      "call": 1661,
      "26": 1662,
      "heard": 1663,
      "professional": 1664,
      "low": 1665,
      "australia": 1666,
      "miles": 1667,
      "california": 1668,
      "win": 1669,
      "yet": 1670,
      "green": 1671,
      "##ie": 1672,
      "trying": 1673,
      "blood": 1674,
      "##ton": 1675,
      "southern": 1676,
      "science": 1677,
      "maybe": 1678,
      "everything": 1679,
      "match": 1680,
      "square": 1681,
      "27": 1682,
      "mouth": 1683,
      "video": 1684,
      "race": 1685,
      "recorded": 1686,
      "leave": 1687,
      "above": 1688,
      "##9": 1689,
      "daughter": 1690,
      "points": 1691,
      "space": 1692,
      "1998": 1693,
      "museum": 1694,
      "change": 1695,
      "middle": 1696,
      "common": 1697,
      "##0": 1698,
      "move": 1699,
      "tv": 1700,
      "post": 1701,
      "##ta": 1702,
      "lake": 1703,
      "seven": 1704,
      "tried": 1705,
      "elected": 1706,
      "closed": 1707,
      "ten": 1708,
      "paul": 1709,
      "minister": 1710,
      "##th": 1711,
      "months": 1712,
      "start": 1713,
      "chief": 1714,
      "return": 1715,
      "canada": 1716,
      "person": 1717,
      "sea": 1718,
      "release": 1719,
      "similar": 1720,
      "modern": 1721,
      "brought": 1722,
      "rest": 1723,
      "hit": 1724,
      "formed": 1725,
      "mr": 1726,
      "##la": 1727,
      "1997": 1728,
      "floor": 1729,
      "event": 1730,
      "doing": 1731,
      "thomas": 1732,
      "1996": 1733,
      "robert": 1734,
      "care": 1735,
      "killed": 1736,
      "training": 1737,
      "star": 1738,
      "week": 1739,
      "needed": 1740,
      "turn": 1741,
      "finished": 1742,
      "railway": 1743,
      "rather": 1744,
      "news": 1745,
      "health": 1746,
      "sent": 1747,
      "example": 1748,
      "ran": 1749,
      "term": 1750,
      "michael": 1751,
      "coming": 1752,
      "currently": 1753,
      "yes": 1754,
      "forces": 1755,
      "despite": 1756,
      "gold": 1757,
      "areas": 1758,
      "50": 1759,
      "stage": 1760,
      "fact": 1761,
      "29": 1762,
      "dead": 1763,
      "says": 1764,
      "popular": 1765,
      "2018": 1766,
      "originally": 1767,
      "germany": 1768,
      "probably": 1769,
      "developed": 1770,
      "result": 1771,
      "pulled": 1772,
      "friend": 1773,
      "stood": 1774,
      "money": 1775,
      "running": 1776,
      "mi": 1777,
      "signed": 1778,
      "word": 1779,
      "songs": 1780,
      "child": 1781,
      "eventually": 1782,
      "met": 1783,
      "tour": 1784,
      "average": 1785,
      "teams": 1786,
      "minutes": 1787,
      "festival": 1788,
      "current": 1789,
      "deep": 1790,
      "kind": 1791,
      "1995": 1792,
      "decided": 1793,
      "usually": 1794,
      "eastern": 1795,
      "seemed": 1796,
      "##ness": 1797,
      "episode": 1798,
      "bed": 1799,
      "added": 1800,
      "table": 1801,
      "indian": 1802,
      "private": 1803,
      "charles": 1804,
      "route": 1805,
      "available": 1806,
      "idea": 1807,
      "throughout": 1808,
      "centre": 1809,
      "addition": 1810,
      "appointed": 1811,
      "style": 1812,
      "1994": 1813,
      "books": 1814,
      "eight": 1815,
      "construction": 1816,
      "press": 1817,
      "mean": 1818,
      "wall": 1819,
      "friends": 1820,
      "remained": 1821,
      "schools": 1822,
      "study": 1823,
      "##ch": 1824,
      "##um": 1825,
      "institute": 1826,
      "oh": 1827,
      "chinese": 1828,
      "sometimes": 1829,
      "events": 1830,
      "possible": 1831,
      "1992": 1832,
      "australian": 1833,
      "type": 1834,
      "brown": 1835,
      "forward": 1836,
      "talk": 1837,
      "process": 1838,
      "food": 1839,
      "debut": 1840,
      "seat": 1841,
      "performance": 1842,
      "committee": 1843,
      "features": 1844,
      "character": 1845,
      "arts": 1846,
      "herself": 1847,
      "else": 1848,
      "lot": 1849,
      "strong": 1850,
      "russian": 1851,
      "range": 1852,
      "hours": 1853,
      "peter": 1854,
      "arm": 1855,
      "##da": 1856,
      "morning": 1857,
      "dr": 1858,
      "sold": 1859,
      "##ry": 1860,
      "quickly": 1861,
      "directed": 1862,
      "1993": 1863,
      "guitar": 1864,
      "china": 1865,
      "##w": 1866,
      "31": 1867,
      "list": 1868,
      "##ma": 1869,
      "performed": 1870,
      "media": 1871,
      "uk": 1872,
      "players": 1873,
      "smile": 1874,
      "##rs": 1875,
      "myself": 1876,
      "40": 1877,
      "placed": 1878,
      "coach": 1879,
      "province": 1880,
      "towards": 1881,
      "wouldn": 1882,
      "leading": 1883,
      "whole": 1884,
      "boy": 1885,
      "official": 1886,
      "designed": 1887,
      "grand": 1888,
      "census": 1889,
      "##el": 1890,
      "europe": 1891,
      "attack": 1892,
      "japanese": 1893,
      "henry": 1894,
      "1991": 1895,
      "##re": 1896,
      "##os": 1897,
      "cross": 1898,
      "getting": 1899,
      "alone": 1900,
      "action": 1901,
      "lower": 1902,
      "network": 1903,
      "wide": 1904,
      "washington": 1905,
      "japan": 1906,
      "1990": 1907,
      "hospital": 1908,
      "believe": 1909,
      "changed": 1910,
      "sister": 1911,
      "##ar": 1912,
      "hold": 1913,
      "gone": 1914,
      "sir": 1915,
      "hadn": 1916,
      "ship": 1917,
      "##ka": 1918,
      "studies": 1919,
      "academy": 1920,
      "shot": 1921,
      "rights": 1922,
      "below": 1923,
      "base": 1924,
      "bad": 1925,
      "involved": 1926,
      "kept": 1927,
      "largest": 1928,
      "##ist": 1929,
      "bank": 1930,
      "future": 1931,
      "especially": 1932,
      "beginning": 1933,
      "mark": 1934,
      "movement": 1935,
      "section": 1936,
      "female": 1937,
      "magazine": 1938,
      "plan": 1939,
      "professor": 1940,
      "lord": 1941,
      "longer": 1942,
      "##ian": 1943,
      "sat": 1944,
      "walked": 1945,
      "hill": 1946,
      "actually": 1947,
      "civil": 1948,
      "energy": 1949,
      "model": 1950,
      "families": 1951,
      "size": 1952,
      "thus": 1953,
      "aircraft": 1954,
      "completed": 1955,
      "includes": 1956,
      "data": 1957,
      "captain": 1958,
      "##or": 1959,
      "fight": 1960,
      "vocals": 1961,
      "featured": 1962,
      "richard": 1963,
      "bridge": 1964,
      "fourth": 1965,
      "1989": 1966,
      "officer": 1967,
      "stone": 1968,
      "hear": 1969,
      "##ism": 1970,
      "means": 1971,
      "medical": 1972,
      "groups": 1973,
      "management": 1974,
      "self": 1975,
      "lips": 1976,
      "competition": 1977,
      "entire": 1978,
      "lived": 1979,
      "technology": 1980,
      "leaving": 1981,
      "federal": 1982,
      "tournament": 1983,
      "bit": 1984,
      "passed": 1985,
      "hot": 1986,
      "independent": 1987,
      "awards": 1988,
      "kingdom": 1989,
      "mary": 1990,
      "spent": 1991,
      "fine": 1992,
      "doesn": 1993,
      "reported": 1994,
      "##ling": 1995,
      "jack": 1996,
      "fall": 1997,
      "raised": 1998,
      "itself": 1999,
      "stay": 2000,
      "true": 2001,
      "studio": 2002,
      "1988": 2003,
      "sports": 2004,
      "replaced": 2005,
      "paris": 2006,
      "systems": 2007,
      "saint": 2008,
      "leader": 2009,
      "theatre": 2010,
      "whose": 2011,
      "market": 2012,
      "capital": 2013,
      "parents": 2014,
      "spanish": 2015,
      "canadian": 2016,
      "earth": 2017,
      "##ity": 2018,
      "cut": 2019,
      "degree": 2020,
      "writing": 2021,
      "bay": 2022,
      "christian": 2023,
      "awarded": 2024,
      "natural": 2025,
      "higher": 2026,
      "bill": 2027,
      "##as": 2028,
      "coast": 2029,
      "provided": 2030,
      "previous": 2031,
      "senior": 2032,
      "ft": 2033,
      "valley": 2034,
      "organization": 2035,
      "stopped": 2036,
      "onto": 2037,
      "countries": 2038,
      "parts": 2039,
      "conference": 2040,
      "queen": 2041,
      "security": 2042,
      "interest": 2043,
      "saying": 2044,
      "allowed": 2045,
      "master": 2046,
      "earlier": 2047,
      "phone": 2048,
      "matter": 2049,
      "smith": 2050,
      "winning": 2051,
      "try": 2052,
      "happened": 2053,
      "moving": 2054,
      "campaign": 2055,
      "los": 2056,
      "##ley": 2057,
      "breath": 2058,
      "nearly": 2059,
      "mid": 2060,
      "1987": 2061,
      "certain": 2062,
      "girls": 2063,
      "date": 2064,
      "italian": 2065,
      "african": 2066,
      "standing": 2067,
      "fell": 2068,
      "artist": 2069,
      "##ted": 2070,
      "shows": 2071,
      "deal": 2072,
      "mine": 2073,
      "industry": 2074,
      "1986": 2075,
      "##ng": 2076,
      "everyone": 2077,
      "republic": 2078,
      "provide": 2079,
      "collection": 2080,
      "library": 2081,
      "student": 2082,
      "##ville": 2083,
      "primary": 2084,
      "owned": 2085,
      "older": 2086,
      "via": 2087,
      "heavy": 2088,
      "1st": 2089,
      "makes": 2090,
      "##able": 2091,
      "attention": 2092,
      "anyone": 2093,
      "africa": 2094,
      "##ri": 2095,
      "stated": 2096,
      "length": 2097,
      "ended": 2098,
      "fingers": 2099,
      "command": 2100,
      "staff": 2101,
      "skin": 2102,
      "foreign": 2103,
      "opening": 2104,
      "governor": 2105,
      "okay": 2106,
      "medal": 2107,
      "kill": 2108,
      "sun": 2109,
      "cover": 2110,
      "job": 2111,
      "1985": 2112,
      "introduced": 2113,
      "chest": 2114,
      "hell": 2115,
      "feeling": 2116,
      "##ies": 2117,
      "success": 2118,
      "meet": 2119,
      "reason": 2120,
      "standard": 2121,
      "meeting": 2122,
      "novel": 2123,
      "1984": 2124,
      "trade": 2125,
      "source": 2126,
      "buildings": 2127,
      "##land": 2128,
      "rose": 2129,
      "guy": 2130,
      "goal": 2131,
      "##ur": 2132,
      "chapter": 2133,
      "native": 2134,
      "husband": 2135,
      "previously": 2136,
      "unit": 2137,
      "limited": 2138,
      "entered": 2139,
      "weeks": 2140,
      "producer": 2141,
      "operations": 2142,
      "mountain": 2143,
      "takes": 2144,
      "covered": 2145,
      "forced": 2146,
      "related": 2147,
      "roman": 2148,
      "complete": 2149,
      "successful": 2150,
      "key": 2151,
      "texas": 2152,
      "cold": 2153,
      "##ya": 2154,
      "channel": 2155,
      "1980": 2156,
      "traditional": 2157,
      "films": 2158,
      "dance": 2159,
      "clear": 2160,
      "approximately": 2161,
      "500": 2162,
      "nine": 2163,
      "van": 2164,
      "prince": 2165,
      "question": 2166,
      "active": 2167,
      "tracks": 2168,
      "ireland": 2169,
      "regional": 2170,
      "silver": 2171,
      "author": 2172,
      "personal": 2173,
      "sense": 2174,
      "operation": 2175,
      "##ine": 2176,
      "economic": 2177,
      "1983": 2178,
      "holding": 2179,
      "twenty": 2180,
      "isbn": 2181,
      "additional": 2182,
      "speed": 2183,
      "hour": 2184,
      "edition": 2185,
      "regular": 2186,
      "historic": 2187,
      "places": 2188,
      "whom": 2189,
      "shook": 2190,
      "movie": 2191,
      "km²": 2192,
      "secretary": 2193,
      "prior": 2194,
      "report": 2195,
      "chicago": 2196,
      "read": 2197,
      "foundation": 2198,
      "view": 2199,
      "engine": 2200,
      "scored": 2201,
      "1982": 2202,
      "units": 2203,
      "ask": 2204,
      "airport": 2205,
      "property": 2206,
      "ready": 2207,
      "immediately": 2208,
      "lady": 2209,
      "month": 2210,
      "listed": 2211,
      "contract": 2212,
      "##de": 2213,
      "manager": 2214,
      "themselves": 2215,
      "lines": 2216,
      "##ki": 2217,
      "navy": 2218,
      "writer": 2219,
      "meant": 2220,
      "##ts": 2221,
      "runs": 2222,
      "##ro": 2223,
      "practice": 2224,
      "championships": 2225,
      "singer": 2226,
      "glass": 2227,
      "commission": 2228,
      "required": 2229,
      "forest": 2230,
      "starting": 2231,
      "culture": 2232,
      "generally": 2233,
      "giving": 2234,
      "access": 2235,
      "attended": 2236,
      "test": 2237,
      "couple": 2238,
      "stand": 2239,
      "catholic": 2240,
      "martin": 2241,
      "caught": 2242,
      "executive": 2243,
      "##less": 2244,
      "eye": 2245,
      "##ey": 2246,
      "thinking": 2247,
      "chair": 2248,
      "quite": 2249,
      "shoulder": 2250,
      "1979": 2251,
      "hope": 2252,
      "decision": 2253,
      "plays": 2254,
      "defeated": 2255,
      "municipality": 2256,
      "whether": 2257,
      "structure": 2258,
      "offered": 2259,
      "slowly": 2260,
      "pain": 2261,
      "ice": 2262,
      "direction": 2263,
      "##ion": 2264,
      "paper": 2265,
      "mission": 2266,
      "1981": 2267,
      "mostly": 2268,
      "200": 2269,
      "noted": 2270,
      "individual": 2271,
      "managed": 2272,
      "nature": 2273,
      "lives": 2274,
      "plant": 2275,
      "##ha": 2276,
      "helped": 2277,
      "except": 2278,
      "studied": 2279,
      "computer": 2280,
      "figure": 2281,
      "relationship": 2282,
      "issue": 2283,
      "significant": 2284,
      "loss": 2285,
      "die": 2286,
      "smiled": 2287,
      "gun": 2288,
      "ago": 2289,
      "highest": 2290,
      "1972": 2291,
      "##am": 2292,
      "male": 2293,
      "bring": 2294,
      "goals": 2295,
      "mexico": 2296,
      "problem": 2297,
      "distance": 2298,
      "commercial": 2299,
      "completely": 2300,
      "location": 2301,
      "annual": 2302,
      "famous": 2303,
      "drive": 2304,
      "1976": 2305,
      "neck": 2306,
      "1978": 2307,
      "surface": 2308,
      "caused": 2309,
      "italy": 2310,
      "understand": 2311,
      "greek": 2312,
      "highway": 2313,
      "wrong": 2314,
      "hotel": 2315,
      "comes": 2316,
      "appearance": 2317,
      "joseph": 2318,
      "double": 2319,
      "issues": 2320,
      "musical": 2321,
      "companies": 2322,
      "castle": 2323,
      "income": 2324,
      "review": 2325,
      "assembly": 2326,
      "bass": 2327,
      "initially": 2328,
      "parliament": 2329,
      "artists": 2330,
      "experience": 2331,
      "1974": 2332,
      "particular": 2333,
      "walk": 2334,
      "foot": 2335,
      "engineering": 2336,
      "talking": 2337,
      "window": 2338,
      "dropped": 2339,
      "##ter": 2340,
      "miss": 2341,
      "baby": 2342,
      "boys": 2343,
      "break": 2344,
      "1975": 2345,
      "stars": 2346,
      "edge": 2347,
      "remember": 2348,
      "policy": 2349,
      "carried": 2350,
      "train": 2351,
      "stadium": 2352,
      "bar": 2353,
      "sex": 2354,
      "angeles": 2355,
      "evidence": 2356,
      "##ge": 2357,
      "becoming": 2358,
      "assistant": 2359,
      "soviet": 2360,
      "1977": 2361,
      "upper": 2362,
      "step": 2363,
      "wing": 2364,
      "1970": 2365,
      "youth": 2366,
      "financial": 2367,
      "reach": 2368,
      "##ll": 2369,
      "actor": 2370,
      "numerous": 2371,
      "##se": 2372,
      "##st": 2373,
      "nodded": 2374,
      "arrived": 2375,
      "##ation": 2376,
      "minute": 2377,
      "##nt": 2378,
      "believed": 2379,
      "sorry": 2380,
      "complex": 2381,
      "beautiful": 2382,
      "victory": 2383,
      "associated": 2384,
      "temple": 2385,
      "1968": 2386,
      "1973": 2387,
      "chance": 2388,
      "perhaps": 2389,
      "metal": 2390,
      "##son": 2391,
      "1945": 2392,
      "bishop": 2393,
      "##et": 2394,
      "lee": 2395,
      "launched": 2396,
      "particularly": 2397,
      "tree": 2398,
      "le": 2399,
      "retired": 2400,
      "subject": 2401,
      "prize": 2402,
      "contains": 2403,
      "yeah": 2404,
      "theory": 2405,
      "empire": 2406,
      "##ce": 2407,
      "suddenly": 2408,
      "waiting": 2409,
      "trust": 2410,
      "recording": 2411,
      "##to": 2412,
      "happy": 2413,
      "terms": 2414,
      "camp": 2415,
      "champion": 2416,
      "1971": 2417,
      "religious": 2418,
      "pass": 2419,
      "zealand": 2420,
      "names": 2421,
      "2nd": 2422,
      "port": 2423,
      "ancient": 2424,
      "tom": 2425,
      "corner": 2426,
      "represented": 2427,
      "watch": 2428,
      "legal": 2429,
      "anti": 2430,
      "justice": 2431,
      "cause": 2432,
      "watched": 2433,
      "brothers": 2434,
      "45": 2435,
      "material": 2436,
      "changes": 2437,
      "simply": 2438,
      "response": 2439,
      "louis": 2440,
      "fast": 2441,
      "##ting": 2442,
      "answer": 2443,
      "60": 2444,
      "historical": 2445,
      "1969": 2446,
      "stories": 2447,
      "straight": 2448,
      "create": 2449,
      "feature": 2450,
      "increased": 2451,
      "rate": 2452,
      "administration": 2453,
      "virginia": 2454,
      "el": 2455,
      "activities": 2456,
      "cultural": 2457,
      "overall": 2458,
      "winner": 2459,
      "programs": 2460,
      "basketball": 2461,
      "legs": 2462,
      "guard": 2463,
      "beyond": 2464,
      "cast": 2465,
      "doctor": 2466,
      "mm": 2467,
      "flight": 2468,
      "results": 2469,
      "remains": 2470,
      "cost": 2471,
      "effect": 2472,
      "winter": 2473,
      "##ble": 2474,
      "larger": 2475,
      "islands": 2476,
      "problems": 2477,
      "chairman": 2478,
      "grew": 2479,
      "commander": 2480,
      "isn": 2481,
      "1967": 2482,
      "pay": 2483,
      "failed": 2484,
      "selected": 2485,
      "hurt": 2486,
      "fort": 2487,
      "box": 2488,
      "regiment": 2489,
      "majority": 2490,
      "journal": 2491,
      "35": 2492,
      "edward": 2493,
      "plans": 2494,
      "##ke": 2495,
      "##ni": 2496,
      "shown": 2497,
      "pretty": 2498,
      "irish": 2499,
      "characters": 2500,
      "directly": 2501,
      "scene": 2502,
      "likely": 2503,
      "operated": 2504,
      "allow": 2505,
      "spring": 2506,
      "##j": 2507,
      "junior": 2508,
      "matches": 2509,
      "looks": 2510,
      "mike": 2511,
      "houses": 2512,
      "fellow": 2513,
      "##tion": 2514,
      "beach": 2515,
      "marriage": 2516,
      "##ham": 2517,
      "##ive": 2518,
      "rules": 2519,
      "oil": 2520,
      "65": 2521,
      "florida": 2522,
      "expected": 2523,
      "nearby": 2524,
      "congress": 2525,
      "sam": 2526,
      "peace": 2527,
      "recent": 2528,
      "iii": 2529,
      "wait": 2530,
      "subsequently": 2531,
      "cell": 2532,
      "##do": 2533,
      "variety": 2534,
      "serving": 2535,
      "agreed": 2536,
      "please": 2537,
      "poor": 2538,
      "joe": 2539,
      "pacific": 2540,
      "attempt": 2541,
      "wood": 2542,
      "democratic": 2543,
      "piece": 2544,
      "prime": 2545,
      "##ca": 2546,
      "rural": 2547,
      "mile": 2548,
      "touch": 2549,
      "appears": 2550,
      "township": 2551,
      "1964": 2552,
      "1966": 2553,
      "soldiers": 2554,
      "##men": 2555,
      "##ized": 2556,
      "1965": 2557,
      "pennsylvania": 2558,
      "closer": 2559,
      "fighting": 2560,
      "claimed": 2561,
      "score": 2562,
      "jones": 2563,
      "physical": 2564,
      "editor": 2565,
      "##ous": 2566,
      "filled": 2567,
      "genus": 2568,
      "specific": 2569,
      "sitting": 2570,
      "super": 2571,
      "mom": 2572,
      "##va": 2573,
      "therefore": 2574,
      "supported": 2575,
      "status": 2576,
      "fear": 2577,
      "cases": 2578,
      "store": 2579,
      "meaning": 2580,
      "wales": 2581,
      "minor": 2582,
      "spain": 2583,
      "tower": 2584,
      "focus": 2585,
      "vice": 2586,
      "frank": 2587,
      "follow": 2588,
      "parish": 2589,
      "separate": 2590,
      "golden": 2591,
      "horse": 2592,
      "fifth": 2593,
      "remaining": 2594,
      "branch": 2595,
      "32": 2596,
      "presented": 2597,
      "stared": 2598,
      "##id": 2599,
      "uses": 2600,
      "secret": 2601,
      "forms": 2602,
      "##co": 2603,
      "baseball": 2604,
      "exactly": 2605,
      "##ck": 2606,
      "choice": 2607,
      "note": 2608,
      "discovered": 2609,
      "travel": 2610,
      "composed": 2611,
      "truth": 2612,
      "russia": 2613,
      "ball": 2614,
      "color": 2615,
      "kiss": 2616,
      "dad": 2617,
      "wind": 2618,
      "continue": 2619,
      "ring": 2620,
      "referred": 2621,
      "numbers": 2622,
      "digital": 2623,
      "greater": 2624,
      "##ns": 2625,
      "metres": 2626,
      "slightly": 2627,
      "direct": 2628,
      "increase": 2629,
      "1960": 2630,
      "responsible": 2631,
      "crew": 2632,
      "rule": 2633,
      "trees": 2634,
      "troops": 2635,
      "##no": 2636,
      "broke": 2637,
      "goes": 2638,
      "individuals": 2639,
      "hundred": 2640,
      "weight": 2641,
      "creek": 2642,
      "sleep": 2643,
      "memory": 2644,
      "defense": 2645,
      "provides": 2646,
      "ordered": 2647,
      "code": 2648,
      "value": 2649,
      "jewish": 2650,
      "windows": 2651,
      "1944": 2652,
      "safe": 2653,
      "judge": 2654,
      "whatever": 2655,
      "corps": 2656,
      "realized": 2657,
      "growing": 2658,
      "pre": 2659,
      "##ga": 2660,
      "cities": 2661,
      "alexander": 2662,
      "gaze": 2663,
      "lies": 2664,
      "spread": 2665,
      "scott": 2666,
      "letter": 2667,
      "showed": 2668,
      "situation": 2669,
      "mayor": 2670,
      "transport": 2671,
      "watching": 2672,
      "workers": 2673,
      "extended": 2674,
      "##li": 2675,
      "expression": 2676,
      "normal": 2677,
      "##ment": 2678,
      "chart": 2679,
      "multiple": 2680,
      "border": 2681,
      "##ba": 2682,
      "host": 2683,
      "##ner": 2684,
      "daily": 2685,
      "mrs": 2686,
      "walls": 2687,
      "piano": 2688,
      "##ko": 2689,
      "heat": 2690,
      "cannot": 2691,
      "##ate": 2692,
      "earned": 2693,
      "products": 2694,
      "drama": 2695,
      "era": 2696,
      "authority": 2697,
      "seasons": 2698,
      "join": 2699,
      "grade": 2700,
      "##io": 2701,
      "sign": 2702,
      "difficult": 2703,
      "machine": 2704,
      "1963": 2705,
      "territory": 2706,
      "mainly": 2707,
      "##wood": 2708,
      "stations": 2709,
      "squadron": 2710,
      "1962": 2711,
      "stepped": 2712,
      "iron": 2713,
      "19th": 2714,
      "##led": 2715,
      "serve": 2716,
      "appear": 2717,
      "sky": 2718,
      "speak": 2719,
      "broken": 2720,
      "charge": 2721,
      "knowledge": 2722,
      "kilometres": 2723,
      "removed": 2724,
      "ships": 2725,
      "article": 2726,
      "campus": 2727,
      "simple": 2728,
      "##ty": 2729,
      "pushed": 2730,
      "britain": 2731,
      "##ve": 2732,
      "leaves": 2733,
      "recently": 2734,
      "cd": 2735,
      "soft": 2736,
      "boston": 2737,
      "latter": 2738,
      "easy": 2739,
      "acquired": 2740,
      "poland": 2741,
      "##sa": 2742,
      "quality": 2743,
      "officers": 2744,
      "presence": 2745,
      "planned": 2746,
      "nations": 2747,
      "mass": 2748,
      "broadcast": 2749,
      "jean": 2750,
      "share": 2751,
      "image": 2752,
      "influence": 2753,
      "wild": 2754,
      "offer": 2755,
      "emperor": 2756,
      "electric": 2757,
      "reading": 2758,
      "headed": 2759,
      "ability": 2760,
      "promoted": 2761,
      "yellow": 2762,
      "ministry": 2763,
      "1942": 2764,
      "throat": 2765,
      "smaller": 2766,
      "politician": 2767,
      "##by": 2768,
      "latin": 2769,
      "spoke": 2770,
      "cars": 2771,
      "williams": 2772,
      "males": 2773,
      "lack": 2774,
      "pop": 2775,
      "80": 2776,
      "##ier": 2777,
      "acting": 2778,
      "seeing": 2779,
      "consists": 2780,
      "##ti": 2781,
      "estate": 2782,
      "1961": 2783,
      "pressure": 2784,
      "johnson": 2785,
      "newspaper": 2786,
      "jr": 2787,
      "chris": 2788,
      "olympics": 2789,
      "online": 2790,
      "conditions": 2791,
      "beat": 2792,
      "elements": 2793,
      "walking": 2794,
      "vote": 2795,
      "##field": 2796,
      "needs": 2797,
      "carolina": 2798,
      "text": 2799,
      "featuring": 2800,
      "global": 2801,
      "block": 2802,
      "shirt": 2803,
      "levels": 2804,
      "francisco": 2805,
      "purpose": 2806,
      "females": 2807,
      "et": 2808,
      "dutch": 2809,
      "duke": 2810,
      "ahead": 2811,
      "gas": 2812,
      "twice": 2813,
      "safety": 2814,
      "serious": 2815,
      "turning": 2816,
      "highly": 2817,
      "lieutenant": 2818,
      "firm": 2819,
      "maria": 2820,
      "amount": 2821,
      "mixed": 2822,
      "daniel": 2823,
      "proposed": 2824,
      "perfect": 2825,
      "agreement": 2826,
      "affairs": 2827,
      "3rd": 2828,
      "seconds": 2829,
      "contemporary": 2830,
      "paid": 2831,
      "1943": 2832,
      "prison": 2833,
      "save": 2834,
      "kitchen": 2835,
      "label": 2836,
      "administrative": 2837,
      "intended": 2838,
      "constructed": 2839,
      "academic": 2840,
      "nice": 2841,
      "teacher": 2842,
      "races": 2843,
      "1956": 2844,
      "formerly": 2845,
      "corporation": 2846,
      "ben": 2847,
      "nation": 2848,
      "issued": 2849,
      "shut": 2850,
      "1958": 2851,
      "drums": 2852,
      "housing": 2853,
      "victoria": 2854,
      "seems": 2855,
      "opera": 2856,
      "1959": 2857,
      "graduated": 2858,
      "function": 2859,
      "von": 2860,
      "mentioned": 2861,
      "picked": 2862,
      "build": 2863,
      "recognized": 2864,
      "shortly": 2865,
      "protection": 2866,
      "picture": 2867,
      "notable": 2868,
      "exchange": 2869,
      "elections": 2870,
      "1980s": 2871,
      "loved": 2872,
      "percent": 2873,
      "racing": 2874,
      "fish": 2875,
      "elizabeth": 2876,
      "garden": 2877,
      "volume": 2878,
      "hockey": 2879,
      "1941": 2880,
      "beside": 2881,
      "settled": 2882,
      "##ford": 2883,
      "1940": 2884,
      "competed": 2885,
      "replied": 2886,
      "drew": 2887,
      "1948": 2888,
      "actress": 2889,
      "marine": 2890,
      "scotland": 2891,
      "steel": 2892,
      "glanced": 2893,
      "farm": 2894,
      "steve": 2895,
      "1957": 2896,
      "risk": 2897,
      "tonight": 2898,
      "positive": 2899,
      "magic": 2900,
      "singles": 2901,
      "effects": 2902,
      "gray": 2903,
      "screen": 2904,
      "dog": 2905,
      "##ja": 2906,
      "residents": 2907,
      "bus": 2908,
      "sides": 2909,
      "none": 2910,
      "secondary": 2911,
      "literature": 2912,
      "polish": 2913,
      "destroyed": 2914,
      "flying": 2915,
      "founder": 2916,
      "households": 2917,
      "1939": 2918,
      "lay": 2919,
      "reserve": 2920,
      "usa": 2921,
      "gallery": 2922,
      "##ler": 2923,
      "1946": 2924,
      "industrial": 2925,
      "younger": 2926,
      "approach": 2927,
      "appearances": 2928,
      "urban": 2929,
      "ones": 2930,
      "1950": 2931,
      "finish": 2932,
      "avenue": 2933,
      "powerful": 2934,
      "fully": 2935,
      "growth": 2936,
      "page": 2937,
      "honor": 2938,
      "jersey": 2939,
      "projects": 2940,
      "advanced": 2941,
      "revealed": 2942,
      "basic": 2943,
      "90": 2944,
      "infantry": 2945,
      "pair": 2946,
      "equipment": 2947,
      "visit": 2948,
      "33": 2949,
      "evening": 2950,
      "search": 2951,
      "grant": 2952,
      "effort": 2953,
      "solo": 2954,
      "treatment": 2955,
      "buried": 2956,
      "republican": 2957,
      "primarily": 2958,
      "bottom": 2959,
      "owner": 2960,
      "1970s": 2961,
      "israel": 2962,
      "gives": 2963,
      "jim": 2964,
      "dream": 2965,
      "bob": 2966,
      "remain": 2967,
      "spot": 2968,
      "70": 2969,
      "notes": 2970,
      "produce": 2971,
      "champions": 2972,
      "contact": 2973,
      "ed": 2974,
      "soul": 2975,
      "accepted": 2976,
      "ways": 2977,
      "del": 2978,
      "##ally": 2979,
      "losing": 2980,
      "split": 2981,
      "price": 2982,
      "capacity": 2983,
      "basis": 2984,
      "trial": 2985,
      "questions": 2986,
      "##ina": 2987,
      "1955": 2988,
      "20th": 2989,
      "guess": 2990,
      "officially": 2991,
      "memorial": 2992,
      "naval": 2993,
      "initial": 2994,
      "##ization": 2995,
      "whispered": 2996,
      "median": 2997,
      "engineer": 2998,
      "##ful": 2999,
      "sydney": 3000,
      "##go": 3001,
      "columbia": 3002,
      "strength": 3003,
      "300": 3004,
      "1952": 3005,
      "tears": 3006,
      "senate": 3007,
      "00": 3008,
      "card": 3009,
      "asian": 3010,
      "agent": 3011,
      "1947": 3012,
      "software": 3013,
      "44": 3014,
      "draw": 3015,
      "warm": 3016,
      "supposed": 3017,
      "com": 3018,
      "pro": 3019,
      "##il": 3020,
      "transferred": 3021,
      "leaned": 3022,
      "##at": 3023,
      "candidate": 3024,
      "escape": 3025,
      "mountains": 3026,
      "asia": 3027,
      "potential": 3028,
      "activity": 3029,
      "entertainment": 3030,
      "seem": 3031,
      "traffic": 3032,
      "jackson": 3033,
      "murder": 3034,
      "36": 3035,
      "slow": 3036,
      "product": 3037,
      "orchestra": 3038,
      "haven": 3039,
      "agency": 3040,
      "bbc": 3041,
      "taught": 3042,
      "website": 3043,
      "comedy": 3044,
      "unable": 3045,
      "storm": 3046,
      "planning": 3047,
      "albums": 3048,
      "rugby": 3049,
      "environment": 3050,
      "scientific": 3051,
      "grabbed": 3052,
      "protect": 3053,
      "##hi": 3054,
      "boat": 3055,
      "typically": 3056,
      "1954": 3057,
      "1953": 3058,
      "damage": 3059,
      "principal": 3060,
      "divided": 3061,
      "dedicated": 3062,
      "mount": 3063,
      "ohio": 3064,
      "##berg": 3065,
      "pick": 3066,
      "fought": 3067,
      "driver": 3068,
      "##der": 3069,
      "empty": 3070,
      "shoulders": 3071,
      "sort": 3072,
      "thank": 3073,
      "berlin": 3074,
      "prominent": 3075,
      "account": 3076,
      "freedom": 3077,
      "necessary": 3078,
      "efforts": 3079,
      "alex": 3080,
      "headquarters": 3081,
      "follows": 3082,
      "alongside": 3083,
      "des": 3084,
      "simon": 3085,
      "andrew": 3086,
      "suggested": 3087,
      "operating": 3088,
      "learning": 3089,
      "steps": 3090,
      "1949": 3091,
      "sweet": 3092,
      "technical": 3093,
      "begin": 3094,
      "easily": 3095,
      "34": 3096,
      "teeth": 3097,
      "speaking": 3098,
      "settlement": 3099,
      "scale": 3100,
      "##sh": 3101,
      "renamed": 3102,
      "ray": 3103,
      "max": 3104,
      "enemy": 3105,
      "semi": 3106,
      "joint": 3107,
      "compared": 3108,
      "##rd": 3109,
      "scottish": 3110,
      "leadership": 3111,
      "analysis": 3112,
      "offers": 3113,
      "georgia": 3114,
      "pieces": 3115,
      "captured": 3116,
      "animal": 3117,
      "deputy": 3118,
      "guest": 3119,
      "organized": 3120,
      "##lin": 3121,
      "tony": 3122,
      "combined": 3123,
      "method": 3124,
      "challenge": 3125,
      "1960s": 3126,
      "huge": 3127,
      "wants": 3128,
      "battalion": 3129,
      "sons": 3130,
      "rise": 3131,
      "crime": 3132,
      "types": 3133,
      "facilities": 3134,
      "telling": 3135,
      "path": 3136,
      "1951": 3137,
      "platform": 3138,
      "sit": 3139,
      "1990s": 3140,
      "##lo": 3141,
      "tells": 3142,
      "assigned": 3143,
      "rich": 3144,
      "pull": 3145,
      "##ot": 3146,
      "commonly": 3147,
      "alive": 3148,
      "##za": 3149,
      "letters": 3150,
      "concept": 3151,
      "conducted": 3152,
      "wearing": 3153,
      "happen": 3154,
      "bought": 3155,
      "becomes": 3156,
      "holy": 3157,
      "gets": 3158,
      "ocean": 3159,
      "defeat": 3160,
      "languages": 3161,
      "purchased": 3162,
      "coffee": 3163,
      "occurred": 3164,
      "titled": 3165,
      "##q": 3166,
      "declared": 3167,
      "applied": 3168,
      "sciences": 3169,
      "concert": 3170,
      "sounds": 3171,
      "jazz": 3172,
      "brain": 3173,
      "##me": 3174,
      "painting": 3175,
      "fleet": 3176,
      "tax": 3177,
      "nick": 3178,
      "##ius": 3179,
      "michigan": 3180,
      "count": 3181,
      "animals": 3182,
      "leaders": 3183,
      "episodes": 3184,
      "##line": 3185,
      "content": 3186,
      "##den": 3187,
      "birth": 3188,
      "##it": 3189,
      "clubs": 3190,
      "64": 3191,
      "palace": 3192,
      "critical": 3193,
      "refused": 3194,
      "fair": 3195,
      "leg": 3196,
      "laughed": 3197,
      "returning": 3198,
      "surrounding": 3199,
      "participated": 3200,
      "formation": 3201,
      "lifted": 3202,
      "pointed": 3203,
      "connected": 3204,
      "rome": 3205,
      "medicine": 3206,
      "laid": 3207,
      "taylor": 3208,
      "santa": 3209,
      "powers": 3210,
      "adam": 3211,
      "tall": 3212,
      "shared": 3213,
      "focused": 3214,
      "knowing": 3215,
      "yards": 3216,
      "entrance": 3217,
      "falls": 3218,
      "##wa": 3219,
      "calling": 3220,
      "##ad": 3221,
      "sources": 3222,
      "chosen": 3223,
      "beneath": 3224,
      "resources": 3225,
      "yard": 3226,
      "##ite": 3227,
      "nominated": 3228,
      "silence": 3229,
      "zone": 3230,
      "defined": 3231,
      "##que": 3232,
      "gained": 3233,
      "thirty": 3234,
      "38": 3235,
      "bodies": 3236,
      "moon": 3237,
      "##ard": 3238,
      "adopted": 3239,
      "christmas": 3240,
      "widely": 3241,
      "register": 3242,
      "apart": 3243,
      "iran": 3244,
      "premier": 3245,
      "serves": 3246,
      "du": 3247,
      "unknown": 3248,
      "parties": 3249,
      "##les": 3250,
      "generation": 3251,
      "##ff": 3252,
      "continues": 3253,
      "quick": 3254,
      "fields": 3255,
      "brigade": 3256,
      "quiet": 3257,
      "teaching": 3258,
      "clothes": 3259,
      "impact": 3260,
      "weapons": 3261,
      "partner": 3262,
      "flat": 3263,
      "theater": 3264,
      "supreme": 3265,
      "1938": 3266,
      "37": 3267,
      "relations": 3268,
      "##tor": 3269,
      "plants": 3270,
      "suffered": 3271,
      "1936": 3272,
      "wilson": 3273,
      "kids": 3274,
      "begins": 3275,
      "##age": 3276,
      "1918": 3277,
      "seats": 3278,
      "armed": 3279,
      "internet": 3280,
      "models": 3281,
      "worth": 3282,
      "laws": 3283,
      "400": 3284,
      "communities": 3285,
      "classes": 3286,
      "background": 3287,
      "knows": 3288,
      "thanks": 3289,
      "quarter": 3290,
      "reaching": 3291,
      "humans": 3292,
      "carry": 3293,
      "killing": 3294,
      "format": 3295,
      "kong": 3296,
      "hong": 3297,
      "setting": 3298,
      "75": 3299,
      "architecture": 3300,
      "disease": 3301,
      "railroad": 3302,
      "inc": 3303,
      "possibly": 3304,
      "wish": 3305,
      "arthur": 3306,
      "thoughts": 3307,
      "harry": 3308,
      "doors": 3309,
      "density": 3310,
      "##di": 3311,
      "crowd": 3312,
      "illinois": 3313,
      "stomach": 3314,
      "tone": 3315,
      "unique": 3316,
      "reports": 3317,
      "anyway": 3318,
      "##ir": 3319,
      "liberal": 3320,
      "der": 3321,
      "vehicle": 3322,
      "thick": 3323,
      "dry": 3324,
      "drug": 3325,
      "faced": 3326,
      "largely": 3327,
      "facility": 3328,
      "theme": 3329,
      "holds": 3330,
      "creation": 3331,
      "strange": 3332,
      "colonel": 3333,
      "##mi": 3334,
      "revolution": 3335,
      "bell": 3336,
      "politics": 3337,
      "turns": 3338,
      "silent": 3339,
      "rail": 3340,
      "relief": 3341,
      "independence": 3342,
      "combat": 3343,
      "shape": 3344,
      "write": 3345,
      "determined": 3346,
      "sales": 3347,
      "learned": 3348,
      "4th": 3349,
      "finger": 3350,
      "oxford": 3351,
      "providing": 3352,
      "1937": 3353,
      "heritage": 3354,
      "fiction": 3355,
      "situated": 3356,
      "designated": 3357,
      "allowing": 3358,
      "distribution": 3359,
      "hosted": 3360,
      "##est": 3361,
      "sight": 3362,
      "interview": 3363,
      "estimated": 3364,
      "reduced": 3365,
      "##ria": 3366,
      "toronto": 3367,
      "footballer": 3368,
      "keeping": 3369,
      "guys": 3370,
      "damn": 3371,
      "claim": 3372,
      "motion": 3373,
      "sport": 3374,
      "sixth": 3375,
      "stayed": 3376,
      "##ze": 3377,
      "en": 3378,
      "rear": 3379,
      "receive": 3380,
      "handed": 3381,
      "twelve": 3382,
      "dress": 3383,
      "audience": 3384,
      "granted": 3385,
      "brazil": 3386,
      "##well": 3387,
      "spirit": 3388,
      "##ated": 3389,
      "noticed": 3390,
      "etc": 3391,
      "olympic": 3392,
      "representative": 3393,
      "eric": 3394,
      "tight": 3395,
      "trouble": 3396,
      "reviews": 3397,
      "drink": 3398,
      "vampire": 3399,
      "missing": 3400,
      "roles": 3401,
      "ranked": 3402,
      "newly": 3403,
      "household": 3404,
      "finals": 3405,
      "wave": 3406,
      "critics": 3407,
      "##ee": 3408,
      "phase": 3409,
      "massachusetts": 3410,
      "pilot": 3411,
      "unlike": 3412,
      "philadelphia": 3413,
      "bright": 3414,
      "guns": 3415,
      "crown": 3416,
      "organizations": 3417,
      "roof": 3418,
      "42": 3419,
      "respectively": 3420,
      "clearly": 3421,
      "tongue": 3422,
      "marked": 3423,
      "circle": 3424,
      "fox": 3425,
      "korea": 3426,
      "bronze": 3427,
      "brian": 3428,
      "expanded": 3429,
      "sexual": 3430,
      "supply": 3431,
      "yourself": 3432,
      "inspired": 3433,
      "labour": 3434,
      "fc": 3435,
      "##ah": 3436,
      "reference": 3437,
      "vision": 3438,
      "draft": 3439,
      "connection": 3440,
      "brand": 3441,
      "reasons": 3442,
      "1935": 3443,
      "classic": 3444,
      "driving": 3445,
      "trip": 3446,
      "jesus": 3447,
      "cells": 3448,
      "entry": 3449,
      "1920": 3450,
      "neither": 3451,
      "trail": 3452,
      "claims": 3453,
      "atlantic": 3454,
      "orders": 3455,
      "labor": 3456,
      "nose": 3457,
      "afraid": 3458,
      "identified": 3459,
      "intelligence": 3460,
      "calls": 3461,
      "cancer": 3462,
      "attacked": 3463,
      "passing": 3464,
      "stephen": 3465,
      "positions": 3466,
      "imperial": 3467,
      "grey": 3468,
      "jason": 3469,
      "39": 3470,
      "sunday": 3471,
      "48": 3472,
      "swedish": 3473,
      "avoid": 3474,
      "extra": 3475,
      "uncle": 3476,
      "message": 3477,
      "covers": 3478,
      "allows": 3479,
      "surprise": 3480,
      "materials": 3481,
      "fame": 3482,
      "hunter": 3483,
      "##ji": 3484,
      "1930": 3485,
      "citizens": 3486,
      "figures": 3487,
      "davis": 3488,
      "environmental": 3489,
      "confirmed": 3490,
      "shit": 3491,
      "titles": 3492,
      "di": 3493,
      "performing": 3494,
      "difference": 3495,
      "acts": 3496,
      "attacks": 3497,
      "##ov": 3498,
      "existing": 3499,
      "votes": 3500,
      "opportunity": 3501,
      "nor": 3502,
      "shop": 3503,
      "entirely": 3504,
      "trains": 3505,
      "opposite": 3506,
      "pakistan": 3507,
      "##pa": 3508,
      "develop": 3509,
      "resulted": 3510,
      "representatives": 3511,
      "actions": 3512,
      "reality": 3513,
      "pressed": 3514,
      "##ish": 3515,
      "barely": 3516,
      "wine": 3517,
      "conversation": 3518,
      "faculty": 3519,
      "northwest": 3520,
      "ends": 3521,
      "documentary": 3522,
      "nuclear": 3523,
      "stock": 3524,
      "grace": 3525,
      "sets": 3526,
      "eat": 3527,
      "alternative": 3528,
      "##ps": 3529,
      "bag": 3530,
      "resulting": 3531,
      "creating": 3532,
      "surprised": 3533,
      "cemetery": 3534,
      "1919": 3535,
      "drop": 3536,
      "finding": 3537,
      "sarah": 3538,
      "cricket": 3539,
      "streets": 3540,
      "tradition": 3541,
      "ride": 3542,
      "1933": 3543,
      "exhibition": 3544,
      "target": 3545,
      "ear": 3546,
      "explained": 3547,
      "rain": 3548,
      "composer": 3549,
      "injury": 3550,
      "apartment": 3551,
      "municipal": 3552,
      "educational": 3553,
      "occupied": 3554,
      "netherlands": 3555,
      "clean": 3556,
      "billion": 3557,
      "constitution": 3558,
      "learn": 3559,
      "1914": 3560,
      "maximum": 3561,
      "classical": 3562,
      "francis": 3563,
      "lose": 3564,
      "opposition": 3565,
      "jose": 3566,
      "ontario": 3567,
      "bear": 3568,
      "core": 3569,
      "hills": 3570,
      "rolled": 3571,
      "ending": 3572,
      "drawn": 3573,
      "permanent": 3574,
      "fun": 3575,
      "##tes": 3576,
      "##lla": 3577,
      "lewis": 3578,
      "sites": 3579,
      "chamber": 3580,
      "ryan": 3581,
      "##way": 3582,
      "scoring": 3583,
      "height": 3584,
      "1934": 3585,
      "##house": 3586,
      "lyrics": 3587,
      "staring": 3588,
      "55": 3589,
      "officials": 3590,
      "1917": 3591,
      "snow": 3592,
      "oldest": 3593,
      "##tic": 3594,
      "orange": 3595,
      "##ger": 3596,
      "qualified": 3597,
      "interior": 3598,
      "apparently": 3599,
      "succeeded": 3600,
      "thousand": 3601,
      "dinner": 3602,
      "lights": 3603,
      "existence": 3604,
      "fans": 3605,
      "heavily": 3606,
      "41": 3607,
      "greatest": 3608,
      "conservative": 3609,
      "send": 3610,
      "bowl": 3611,
      "plus": 3612,
      "enter": 3613,
      "catch": 3614,
      "##un": 3615,
      "economy": 3616,
      "duty": 3617,
      "1929": 3618,
      "speech": 3619,
      "authorities": 3620,
      "princess": 3621,
      "performances": 3622,
      "versions": 3623,
      "shall": 3624,
      "graduate": 3625,
      "pictures": 3626,
      "effective": 3627,
      "remembered": 3628,
      "poetry": 3629,
      "desk": 3630,
      "crossed": 3631,
      "starring": 3632,
      "starts": 3633,
      "passenger": 3634,
      "sharp": 3635,
      "##ant": 3636,
      "acres": 3637,
      "ass": 3638,
      "weather": 3639,
      "falling": 3640,
      "rank": 3641,
      "fund": 3642,
      "supporting": 3643,
      "check": 3644,
      "adult": 3645,
      "publishing": 3646,
      "heads": 3647,
      "cm": 3648,
      "southeast": 3649,
      "lane": 3650,
      "##burg": 3651,
      "application": 3652,
      "bc": 3653,
      "##ura": 3654,
      "les": 3655,
      "condition": 3656,
      "transfer": 3657,
      "prevent": 3658,
      "display": 3659,
      "ex": 3660,
      "regions": 3661,
      "earl": 3662,
      "federation": 3663,
      "cool": 3664,
      "relatively": 3665,
      "answered": 3666,
      "besides": 3667,
      "1928": 3668,
      "obtained": 3669,
      "portion": 3670,
      "##town": 3671,
      "mix": 3672,
      "##ding": 3673,
      "reaction": 3674,
      "liked": 3675,
      "dean": 3676,
      "express": 3677,
      "peak": 3678,
      "1932": 3679,
      "##tte": 3680,
      "counter": 3681,
      "religion": 3682,
      "chain": 3683,
      "rare": 3684,
      "miller": 3685,
      "convention": 3686,
      "aid": 3687,
      "lie": 3688,
      "vehicles": 3689,
      "mobile": 3690,
      "perform": 3691,
      "squad": 3692,
      "wonder": 3693,
      "lying": 3694,
      "crazy": 3695,
      "sword": 3696,
      "##ping": 3697,
      "attempted": 3698,
      "centuries": 3699,
      "weren": 3700,
      "philosophy": 3701,
      "category": 3702,
      "##ize": 3703,
      "anna": 3704,
      "interested": 3705,
      "47": 3706,
      "sweden": 3707,
      "wolf": 3708,
      "frequently": 3709,
      "abandoned": 3710,
      "kg": 3711,
      "literary": 3712,
      "alliance": 3713,
      "task": 3714,
      "entitled": 3715,
      "##ay": 3716,
      "threw": 3717,
      "promotion": 3718,
      "factory": 3719,
      "tiny": 3720,
      "soccer": 3721,
      "visited": 3722,
      "matt": 3723,
      "fm": 3724,
      "achieved": 3725,
      "52": 3726,
      "defence": 3727,
      "internal": 3728,
      "persian": 3729,
      "43": 3730,
      "methods": 3731,
      "##ging": 3732,
      "arrested": 3733,
      "otherwise": 3734,
      "cambridge": 3735,
      "programming": 3736,
      "villages": 3737,
      "elementary": 3738,
      "districts": 3739,
      "rooms": 3740,
      "criminal": 3741,
      "conflict": 3742,
      "worry": 3743,
      "trained": 3744,
      "1931": 3745,
      "attempts": 3746,
      "waited": 3747,
      "signal": 3748,
      "bird": 3749,
      "truck": 3750,
      "subsequent": 3751,
      "programme": 3752,
      "##ol": 3753,
      "ad": 3754,
      "49": 3755,
      "communist": 3756,
      "details": 3757,
      "faith": 3758,
      "sector": 3759,
      "patrick": 3760,
      "carrying": 3761,
      "laugh": 3762,
      "##ss": 3763,
      "controlled": 3764,
      "korean": 3765,
      "showing": 3766,
      "origin": 3767,
      "fuel": 3768,
      "evil": 3769,
      "1927": 3770,
      "##ent": 3771,
      "brief": 3772,
      "identity": 3773,
      "darkness": 3774,
      "address": 3775,
      "pool": 3776,
      "missed": 3777,
      "publication": 3778,
      "web": 3779,
      "planet": 3780,
      "ian": 3781,
      "anne": 3782,
      "wings": 3783,
      "invited": 3784,
      "##tt": 3785,
      "briefly": 3786,
      "standards": 3787,
      "kissed": 3788,
      "##be": 3789,
      "ideas": 3790,
      "climate": 3791,
      "causing": 3792,
      "walter": 3793,
      "worse": 3794,
      "albert": 3795,
      "articles": 3796,
      "winners": 3797,
      "desire": 3798,
      "aged": 3799,
      "northeast": 3800,
      "dangerous": 3801,
      "gate": 3802,
      "doubt": 3803,
      "1922": 3804,
      "wooden": 3805,
      "multi": 3806,
      "##ky": 3807,
      "poet": 3808,
      "rising": 3809,
      "funding": 3810,
      "46": 3811,
      "communications": 3812,
      "communication": 3813,
      "violence": 3814,
      "copies": 3815,
      "prepared": 3816,
      "ford": 3817,
      "investigation": 3818,
      "skills": 3819,
      "1924": 3820,
      "pulling": 3821,
      "electronic": 3822,
      "##ak": 3823,
      "##ial": 3824,
      "##han": 3825,
      "containing": 3826,
      "ultimately": 3827,
      "offices": 3828,
      "singing": 3829,
      "understanding": 3830,
      "restaurant": 3831,
      "tomorrow": 3832,
      "fashion": 3833,
      "christ": 3834,
      "ward": 3835,
      "da": 3836,
      "pope": 3837,
      "stands": 3838,
      "5th": 3839,
      "flow": 3840,
      "studios": 3841,
      "aired": 3842,
      "commissioned": 3843,
      "contained": 3844,
      "exist": 3845,
      "fresh": 3846,
      "americans": 3847,
      "##per": 3848,
      "wrestling": 3849,
      "approved": 3850,
      "kid": 3851,
      "employed": 3852,
      "respect": 3853,
      "suit": 3854,
      "1925": 3855,
      "angel": 3856,
      "asking": 3857,
      "increasing": 3858,
      "frame": 3859,
      "angry": 3860,
      "selling": 3861,
      "1950s": 3862,
      "thin": 3863,
      "finds": 3864,
      "##nd": 3865,
      "temperature": 3866,
      "statement": 3867,
      "ali": 3868,
      "explain": 3869,
      "inhabitants": 3870,
      "towns": 3871,
      "extensive": 3872,
      "narrow": 3873,
      "51": 3874,
      "jane": 3875,
      "flowers": 3876,
      "images": 3877,
      "promise": 3878,
      "somewhere": 3879,
      "object": 3880,
      "fly": 3881,
      "closely": 3882,
      "##ls": 3883,
      "1912": 3884,
      "bureau": 3885,
      "cape": 3886,
      "1926": 3887,
      "weekly": 3888,
      "presidential": 3889,
      "legislative": 3890,
      "1921": 3891,
      "##ai": 3892,
      "##au": 3893,
      "launch": 3894,
      "founding": 3895,
      "##ny": 3896,
      "978": 3897,
      "##ring": 3898,
      "artillery": 3899,
      "strike": 3900,
      "un": 3901,
      "institutions": 3902,
      "roll": 3903,
      "writers": 3904,
      "landing": 3905,
      "chose": 3906,
      "kevin": 3907,
      "anymore": 3908,
      "pp": 3909,
      "##ut": 3910,
      "attorney": 3911,
      "fit": 3912,
      "dan": 3913,
      "billboard": 3914,
      "receiving": 3915,
      "agricultural": 3916,
      "breaking": 3917,
      "sought": 3918,
      "dave": 3919,
      "admitted": 3920,
      "lands": 3921,
      "mexican": 3922,
      "##bury": 3923,
      "charlie": 3924,
      "specifically": 3925,
      "hole": 3926,
      "iv": 3927,
      "howard": 3928,
      "credit": 3929,
      "moscow": 3930,
      "roads": 3931,
      "accident": 3932,
      "1923": 3933,
      "proved": 3934,
      "wear": 3935,
      "struck": 3936,
      "hey": 3937,
      "guards": 3938,
      "stuff": 3939,
      "slid": 3940,
      "expansion": 3941,
      "1915": 3942,
      "cat": 3943,
      "anthony": 3944,
      "##kin": 3945,
      "melbourne": 3946,
      "opposed": 3947,
      "sub": 3948,
      "southwest": 3949,
      "architect": 3950,
      "failure": 3951,
      "plane": 3952,
      "1916": 3953,
      "##ron": 3954,
      "map": 3955,
      "camera": 3956,
      "tank": 3957,
      "listen": 3958,
      "regarding": 3959,
      "wet": 3960,
      "introduction": 3961,
      "metropolitan": 3962,
      "link": 3963,
      "ep": 3964,
      "fighter": 3965,
      "inch": 3966,
      "grown": 3967,
      "gene": 3968,
      "anger": 3969,
      "fixed": 3970,
      "buy": 3971,
      "dvd": 3972,
      "khan": 3973,
      "domestic": 3974,
      "worldwide": 3975,
      "chapel": 3976,
      "mill": 3977,
      "functions": 3978,
      "examples": 3979,
      "##head": 3980,
      "developing": 3981,
      "1910": 3982,
      "turkey": 3983,
      "hits": 3984,
      "pocket": 3985,
      "antonio": 3986,
      "papers": 3987,
      "grow": 3988,
      "unless": 3989,
      "circuit": 3990,
      "18th": 3991,
      "concerned": 3992,
      "attached": 3993,
      "journalist": 3994,
      "selection": 3995,
      "journey": 3996,
      "converted": 3997,
      "provincial": 3998,
      "painted": 3999,
      "hearing": 4000,
      "aren": 4001,
      "bands": 4002,
      "negative": 4003,
      "aside": 4004,
      "wondered": 4005,
      "knight": 4006,
      "lap": 4007,
      "survey": 4008,
      "ma": 4009,
      "##ow": 4010,
      "noise": 4011,
      "billy": 4012,
      "##ium": 4013,
      "shooting": 4014,
      "guide": 4015,
      "bedroom": 4016,
      "priest": 4017,
      "resistance": 4018,
      "motor": 4019,
      "homes": 4020,
      "sounded": 4021,
      "giant": 4022,
      "##mer": 4023,
      "150": 4024,
      "scenes": 4025,
      "equal": 4026,
      "comic": 4027,
      "patients": 4028,
      "hidden": 4029,
      "solid": 4030,
      "actual": 4031,
      "bringing": 4032,
      "afternoon": 4033,
      "touched": 4034,
      "funds": 4035,
      "wedding": 4036,
      "consisted": 4037,
      "marie": 4038,
      "canal": 4039,
      "sr": 4040,
      "kim": 4041,
      "treaty": 4042,
      "turkish": 4043,
      "recognition": 4044,
      "residence": 4045,
      "cathedral": 4046,
      "broad": 4047,
      "knees": 4048,
      "incident": 4049,
      "shaped": 4050,
      "fired": 4051,
      "norwegian": 4052,
      "handle": 4053,
      "cheek": 4054,
      "contest": 4055,
      "represent": 4056,
      "##pe": 4057,
      "representing": 4058,
      "beauty": 4059,
      "##sen": 4060,
      "birds": 4061,
      "advantage": 4062,
      "emergency": 4063,
      "wrapped": 4064,
      "drawing": 4065,
      "notice": 4066,
      "pink": 4067,
      "broadcasting": 4068,
      "##ong": 4069,
      "somehow": 4070,
      "bachelor": 4071,
      "seventh": 4072,
      "collected": 4073,
      "registered": 4074,
      "establishment": 4075,
      "alan": 4076,
      "assumed": 4077,
      "chemical": 4078,
      "personnel": 4079,
      "roger": 4080,
      "retirement": 4081,
      "jeff": 4082,
      "portuguese": 4083,
      "wore": 4084,
      "tied": 4085,
      "device": 4086,
      "threat": 4087,
      "progress": 4088,
      "advance": 4089,
      "##ised": 4090,
      "banks": 4091,
      "hired": 4092,
      "manchester": 4093,
      "nfl": 4094,
      "teachers": 4095,
      "structures": 4096,
      "forever": 4097,
      "##bo": 4098,
      "tennis": 4099,
      "helping": 4100,
      "saturday": 4101,
      "sale": 4102,
      "applications": 4103,
      "junction": 4104,
      "hip": 4105,
      "incorporated": 4106,
      "neighborhood": 4107,
      "dressed": 4108,
      "ceremony": 4109,
      "##ds": 4110,
      "influenced": 4111,
      "hers": 4112,
      "visual": 4113,
      "stairs": 4114,
      "decades": 4115,
      "inner": 4116,
      "kansas": 4117,
      "hung": 4118,
      "hoped": 4119,
      "gain": 4120,
      "scheduled": 4121,
      "downtown": 4122,
      "engaged": 4123,
      "austria": 4124,
      "clock": 4125,
      "norway": 4126,
      "certainly": 4127,
      "pale": 4128,
      "protected": 4129,
      "1913": 4130,
      "victor": 4131,
      "employees": 4132,
      "plate": 4133,
      "putting": 4134,
      "surrounded": 4135,
      "##ists": 4136,
      "finishing": 4137,
      "blues": 4138,
      "tropical": 4139,
      "##ries": 4140,
      "minnesota": 4141,
      "consider": 4142,
      "philippines": 4143,
      "accept": 4144,
      "54": 4145,
      "retrieved": 4146,
      "1900": 4147,
      "concern": 4148,
      "anderson": 4149,
      "properties": 4150,
      "institution": 4151,
      "gordon": 4152,
      "successfully": 4153,
      "vietnam": 4154,
      "##dy": 4155,
      "backing": 4156,
      "outstanding": 4157,
      "muslim": 4158,
      "crossing": 4159,
      "folk": 4160,
      "producing": 4161,
      "usual": 4162,
      "demand": 4163,
      "occurs": 4164,
      "observed": 4165,
      "lawyer": 4166,
      "educated": 4167,
      "##ana": 4168,
      "kelly": 4169,
      "string": 4170,
      "pleasure": 4171,
      "budget": 4172,
      "items": 4173,
      "quietly": 4174,
      "colorado": 4175,
      "philip": 4176,
      "typical": 4177,
      "##worth": 4178,
      "derived": 4179,
      "600": 4180,
      "survived": 4181,
      "asks": 4182,
      "mental": 4183,
      "##ide": 4184,
      "56": 4185,
      "jake": 4186,
      "jews": 4187,
      "distinguished": 4188,
      "ltd": 4189,
      "1911": 4190,
      "sri": 4191,
      "extremely": 4192,
      "53": 4193,
      "athletic": 4194,
      "loud": 4195,
      "thousands": 4196,
      "worried": 4197,
      "shadow": 4198,
      "transportation": 4199,
      "horses": 4200,
      "weapon": 4201,
      "arena": 4202,
      "importance": 4203,
      "users": 4204,
      "tim": 4205,
      "objects": 4206,
      "contributed": 4207,
      "dragon": 4208,
      "douglas": 4209,
      "aware": 4210,
      "senator": 4211,
      "johnny": 4212,
      "jordan": 4213,
      "sisters": 4214,
      "engines": 4215,
      "flag": 4216,
      "investment": 4217,
      "samuel": 4218,
      "shock": 4219,
      "capable": 4220,
      "clark": 4221,
      "row": 4222,
      "wheel": 4223,
      "refers": 4224,
      "session": 4225,
      "familiar": 4226,
      "biggest": 4227,
      "wins": 4228,
      "hate": 4229,
      "maintained": 4230,
      "drove": 4231,
      "hamilton": 4232,
      "request": 4233,
      "expressed": 4234,
      "injured": 4235,
      "underground": 4236,
      "churches": 4237,
      "walker": 4238,
      "wars": 4239,
      "tunnel": 4240,
      "passes": 4241,
      "stupid": 4242,
      "agriculture": 4243,
      "softly": 4244,
      "cabinet": 4245,
      "regarded": 4246,
      "joining": 4247,
      "indiana": 4248,
      "##ea": 4249,
      "##ms": 4250,
      "push": 4251,
      "dates": 4252,
      "spend": 4253,
      "behavior": 4254,
      "woods": 4255,
      "protein": 4256,
      "gently": 4257,
      "chase": 4258,
      "morgan": 4259,
      "mention": 4260,
      "burning": 4261,
      "wake": 4262,
      "combination": 4263,
      "occur": 4264,
      "mirror": 4265,
      "leads": 4266,
      "jimmy": 4267,
      "indeed": 4268,
      "impossible": 4269,
      "singapore": 4270,
      "paintings": 4271,
      "covering": 4272,
      "##nes": 4273,
      "soldier": 4274,
      "locations": 4275,
      "attendance": 4276,
      "sell": 4277,
      "historian": 4278,
      "wisconsin": 4279,
      "invasion": 4280,
      "argued": 4281,
      "painter": 4282,
      "diego": 4283,
      "changing": 4284,
      "egypt": 4285,
      "##don": 4286,
      "experienced": 4287,
      "inches": 4288,
      "##ku": 4289,
      "missouri": 4290,
      "vol": 4291,
      "grounds": 4292,
      "spoken": 4293,
      "switzerland": 4294,
      "##gan": 4295,
      "reform": 4296,
      "rolling": 4297,
      "ha": 4298,
      "forget": 4299,
      "massive": 4300,
      "resigned": 4301,
      "burned": 4302,
      "allen": 4303,
      "tennessee": 4304,
      "locked": 4305,
      "values": 4306,
      "improved": 4307,
      "##mo": 4308,
      "wounded": 4309,
      "universe": 4310,
      "sick": 4311,
      "dating": 4312,
      "facing": 4313,
      "pack": 4314,
      "purchase": 4315,
      "user": 4316,
      "##pur": 4317,
      "moments": 4318,
      "##ul": 4319,
      "merged": 4320,
      "anniversary": 4321,
      "1908": 4322,
      "coal": 4323,
      "brick": 4324,
      "understood": 4325,
      "causes": 4326,
      "dynasty": 4327,
      "queensland": 4328,
      "establish": 4329,
      "stores": 4330,
      "crisis": 4331,
      "promote": 4332,
      "hoping": 4333,
      "views": 4334,
      "cards": 4335,
      "referee": 4336,
      "extension": 4337,
      "##si": 4338,
      "raise": 4339,
      "arizona": 4340,
      "improve": 4341,
      "colonial": 4342,
      "formal": 4343,
      "charged": 4344,
      "##rt": 4345,
      "palm": 4346,
      "lucky": 4347,
      "hide": 4348,
      "rescue": 4349,
      "faces": 4350,
      "95": 4351,
      "feelings": 4352,
      "candidates": 4353,
      "juan": 4354,
      "##ell": 4355,
      "goods": 4356,
      "6th": 4357,
      "courses": 4358,
      "weekend": 4359,
      "59": 4360,
      "luke": 4361,
      "cash": 4362,
      "fallen": 4363,
      "##om": 4364,
      "delivered": 4365,
      "affected": 4366,
      "installed": 4367,
      "carefully": 4368,
      "tries": 4369,
      "swiss": 4370,
      "hollywood": 4371,
      "costs": 4372,
      "lincoln": 4373,
      "responsibility": 4374,
      "##he": 4375,
      "shore": 4376,
      "file": 4377,
      "proper": 4378,
      "normally": 4379,
      "maryland": 4380,
      "assistance": 4381,
      "jump": 4382,
      "constant": 4383,
      "offering": 4384,
      "friendly": 4385,
      "waters": 4386,
      "persons": 4387,
      "realize": 4388,
      "contain": 4389,
      "trophy": 4390,
      "800": 4391,
      "partnership": 4392,
      "factor": 4393,
      "58": 4394,
      "musicians": 4395,
      "cry": 4396,
      "bound": 4397,
      "oregon": 4398,
      "indicated": 4399,
      "hero": 4400,
      "houston": 4401,
      "medium": 4402,
      "##ure": 4403,
      "consisting": 4404,
      "somewhat": 4405,
      "##ara": 4406,
      "57": 4407,
      "cycle": 4408,
      "##che": 4409,
      "beer": 4410,
      "moore": 4411,
      "frederick": 4412,
      "gotten": 4413,
      "eleven": 4414,
      "worst": 4415,
      "weak": 4416,
      "approached": 4417,
      "arranged": 4418,
      "chin": 4419,
      "loan": 4420,
      "universal": 4421,
      "bond": 4422,
      "fifteen": 4423,
      "pattern": 4424,
      "disappeared": 4425,
      "##ney": 4426,
      "translated": 4427,
      "##zed": 4428,
      "lip": 4429,
      "arab": 4430,
      "capture": 4431,
      "interests": 4432,
      "insurance": 4433,
      "##chi": 4434,
      "shifted": 4435,
      "cave": 4436,
      "prix": 4437,
      "warning": 4438,
      "sections": 4439,
      "courts": 4440,
      "coat": 4441,
      "plot": 4442,
      "smell": 4443,
      "feed": 4444,
      "golf": 4445,
      "favorite": 4446,
      "maintain": 4447,
      "knife": 4448,
      "vs": 4449,
      "voted": 4450,
      "degrees": 4451,
      "finance": 4452,
      "quebec": 4453,
      "opinion": 4454,
      "translation": 4455,
      "manner": 4456,
      "ruled": 4457,
      "operate": 4458,
      "productions": 4459,
      "choose": 4460,
      "musician": 4461,
      "discovery": 4462,
      "confused": 4463,
      "tired": 4464,
      "separated": 4465,
      "stream": 4466,
      "techniques": 4467,
      "committed": 4468,
      "attend": 4469,
      "ranking": 4470,
      "kings": 4471,
      "throw": 4472,
      "passengers": 4473,
      "measure": 4474,
      "horror": 4475,
      "fan": 4476,
      "mining": 4477,
      "sand": 4478,
      "danger": 4479,
      "salt": 4480,
      "calm": 4481,
      "decade": 4482,
      "dam": 4483,
      "require": 4484,
      "runner": 4485,
      "##ik": 4486,
      "rush": 4487,
      "associate": 4488,
      "greece": 4489,
      "##ker": 4490,
      "rivers": 4491,
      "consecutive": 4492,
      "matthew": 4493,
      "##ski": 4494,
      "sighed": 4495,
      "sq": 4496,
      "documents": 4497,
      "steam": 4498,
      "edited": 4499,
      "closing": 4500,
      "tie": 4501,
      "accused": 4502,
      "1905": 4503,
      "##ini": 4504,
      "islamic": 4505,
      "distributed": 4506,
      "directors": 4507,
      "organisation": 4508,
      "bruce": 4509,
      "7th": 4510,
      "breathing": 4511,
      "mad": 4512,
      "lit": 4513,
      "arrival": 4514,
      "concrete": 4515,
      "taste": 4516,
      "08": 4517,
      "composition": 4518,
      "shaking": 4519,
      "faster": 4520,
      "amateur": 4521,
      "adjacent": 4522,
      "stating": 4523,
      "1906": 4524,
      "twin": 4525,
      "flew": 4526,
      "##ran": 4527,
      "tokyo": 4528,
      "publications": 4529,
      "##tone": 4530,
      "obviously": 4531,
      "ridge": 4532,
      "storage": 4533,
      "1907": 4534,
      "carl": 4535,
      "pages": 4536,
      "concluded": 4537,
      "desert": 4538,
      "driven": 4539,
      "universities": 4540,
      "ages": 4541,
      "terminal": 4542,
      "sequence": 4543,
      "borough": 4544,
      "250": 4545,
      "constituency": 4546,
      "creative": 4547,
      "cousin": 4548,
      "economics": 4549,
      "dreams": 4550,
      "margaret": 4551,
      "notably": 4552,
      "reduce": 4553,
      "montreal": 4554,
      "mode": 4555,
      "17th": 4556,
      "ears": 4557,
      "saved": 4558,
      "jan": 4559,
      "vocal": 4560,
      "##ica": 4561,
      "1909": 4562,
      "andy": 4563,
      "##jo": 4564,
      "riding": 4565,
      "roughly": 4566,
      "threatened": 4567,
      "##ise": 4568,
      "meters": 4569,
      "meanwhile": 4570,
      "landed": 4571,
      "compete": 4572,
      "repeated": 4573,
      "grass": 4574,
      "czech": 4575,
      "regularly": 4576,
      "charges": 4577,
      "tea": 4578,
      "sudden": 4579,
      "appeal": 4580,
      "##ung": 4581,
      "solution": 4582,
      "describes": 4583,
      "pierre": 4584,
      "classification": 4585,
      "glad": 4586,
      "parking": 4587,
      "##ning": 4588,
      "belt": 4589,
      "physics": 4590,
      "99": 4591,
      "rachel": 4592,
      "add": 4593,
      "hungarian": 4594,
      "participate": 4595,
      "expedition": 4596,
      "damaged": 4597,
      "gift": 4598,
      "childhood": 4599,
      "85": 4600,
      "fifty": 4601,
      "##red": 4602,
      "mathematics": 4603,
      "jumped": 4604,
      "letting": 4605,
      "defensive": 4606,
      "mph": 4607,
      "##ux": 4608,
      "##gh": 4609,
      "testing": 4610,
      "##hip": 4611,
      "hundreds": 4612,
      "shoot": 4613,
      "owners": 4614,
      "matters": 4615,
      "smoke": 4616,
      "israeli": 4617,
      "kentucky": 4618,
      "dancing": 4619,
      "mounted": 4620,
      "grandfather": 4621,
      "emma": 4622,
      "designs": 4623,
      "profit": 4624,
      "argentina": 4625,
      "##gs": 4626,
      "truly": 4627,
      "li": 4628,
      "lawrence": 4629,
      "cole": 4630,
      "begun": 4631,
      "detroit": 4632,
      "willing": 4633,
      "branches": 4634,
      "smiling": 4635,
      "decide": 4636,
      "miami": 4637,
      "enjoyed": 4638,
      "recordings": 4639,
      "##dale": 4640,
      "poverty": 4641,
      "ethnic": 4642,
      "gay": 4643,
      "##bi": 4644,
      "gary": 4645,
      "arabic": 4646,
      "09": 4647,
      "accompanied": 4648,
      "##one": 4649,
      "##ons": 4650,
      "fishing": 4651,
      "determine": 4652,
      "residential": 4653,
      "acid": 4654,
      "##ary": 4655,
      "alice": 4656,
      "returns": 4657,
      "starred": 4658,
      "mail": 4659,
      "##ang": 4660,
      "jonathan": 4661,
      "strategy": 4662,
      "##ue": 4663,
      "net": 4664,
      "forty": 4665,
      "cook": 4666,
      "businesses": 4667,
      "equivalent": 4668,
      "commonwealth": 4669,
      "distinct": 4670,
      "ill": 4671,
      "##cy": 4672,
      "seriously": 4673,
      "##ors": 4674,
      "##ped": 4675,
      "shift": 4676,
      "harris": 4677,
      "replace": 4678,
      "rio": 4679,
      "imagine": 4680,
      "formula": 4681,
      "ensure": 4682,
      "##ber": 4683,
      "additionally": 4684,
      "scheme": 4685,
      "conservation": 4686,
      "occasionally": 4687,
      "purposes": 4688,
      "feels": 4689,
      "favor": 4690,
      "##and": 4691,
      "##ore": 4692,
      "1930s": 4693,
      "contrast": 4694,
      "hanging": 4695,
      "hunt": 4696,
      "movies": 4697,
      "1904": 4698,
      "instruments": 4699,
      "victims": 4700,
      "danish": 4701,
      "christopher": 4702,
      "busy": 4703,
      "demon": 4704,
      "sugar": 4705,
      "earliest": 4706,
      "colony": 4707,
      "studying": 4708,
      "balance": 4709,
      "duties": 4710,
      "##ks": 4711,
      "belgium": 4712,
      "slipped": 4713,
      "carter": 4714,
      "05": 4715,
      "visible": 4716,
      "stages": 4717,
      "iraq": 4718,
      "fifa": 4719,
      "##im": 4720,
      "commune": 4721,
      "forming": 4722,
      "zero": 4723,
      "07": 4724,
      "continuing": 4725,
      "talked": 4726,
      "counties": 4727,
      "legend": 4728,
      "bathroom": 4729,
      "option": 4730,
      "tail": 4731,
      "clay": 4732,
      "daughters": 4733,
      "afterwards": 4734,
      "severe": 4735,
      "jaw": 4736,
      "visitors": 4737,
      "##ded": 4738,
      "devices": 4739,
      "aviation": 4740,
      "russell": 4741,
      "kate": 4742,
      "##vi": 4743,
      "entering": 4744,
      "subjects": 4745,
      "##ino": 4746,
      "temporary": 4747,
      "swimming": 4748,
      "forth": 4749,
      "smooth": 4750,
      "ghost": 4751,
      "audio": 4752,
      "bush": 4753,
      "operates": 4754,
      "rocks": 4755,
      "movements": 4756,
      "signs": 4757,
      "eddie": 4758,
      "##tz": 4759,
      "ann": 4760,
      "voices": 4761,
      "honorary": 4762,
      "06": 4763,
      "memories": 4764,
      "dallas": 4765,
      "pure": 4766,
      "measures": 4767,
      "racial": 4768,
      "promised": 4769,
      "66": 4770,
      "harvard": 4771,
      "ceo": 4772,
      "16th": 4773,
      "parliamentary": 4774,
      "indicate": 4775,
      "benefit": 4776,
      "flesh": 4777,
      "dublin": 4778,
      "louisiana": 4779,
      "1902": 4780,
      "1901": 4781,
      "patient": 4782,
      "sleeping": 4783,
      "1903": 4784,
      "membership": 4785,
      "coastal": 4786,
      "medieval": 4787,
      "wanting": 4788,
      "element": 4789,
      "scholars": 4790,
      "rice": 4791,
      "62": 4792,
      "limit": 4793,
      "survive": 4794,
      "makeup": 4795,
      "rating": 4796,
      "definitely": 4797,
      "collaboration": 4798,
      "obvious": 4799,
      "##tan": 4800,
      "boss": 4801,
      "ms": 4802,
      "baron": 4803,
      "birthday": 4804,
      "linked": 4805,
      "soil": 4806,
      "diocese": 4807,
      "##lan": 4808,
      "ncaa": 4809,
      "##mann": 4810,
      "offensive": 4811,
      "shell": 4812,
      "shouldn": 4813,
      "waist": 4814,
      "##tus": 4815,
      "plain": 4816,
      "ross": 4817,
      "organ": 4818,
      "resolution": 4819,
      "manufacturing": 4820,
      "adding": 4821,
      "relative": 4822,
      "kennedy": 4823,
      "98": 4824,
      "whilst": 4825,
      "moth": 4826,
      "marketing": 4827,
      "gardens": 4828,
      "crash": 4829,
      "72": 4830,
      "heading": 4831,
      "partners": 4832,
      "credited": 4833,
      "carlos": 4834,
      "moves": 4835,
      "cable": 4836,
      "##zi": 4837,
      "marshall": 4838,
      "##out": 4839,
      "depending": 4840,
      "bottle": 4841,
      "represents": 4842,
      "rejected": 4843,
      "responded": 4844,
      "existed": 4845,
      "04": 4846,
      "jobs": 4847,
      "denmark": 4848,
      "lock": 4849,
      "##ating": 4850,
      "treated": 4851,
      "graham": 4852,
      "routes": 4853,
      "talent": 4854,
      "commissioner": 4855,
      "drugs": 4856,
      "secure": 4857,
      "tests": 4858,
      "reign": 4859,
      "restored": 4860,
      "photography": 4861,
      "##gi": 4862,
      "contributions": 4863,
      "oklahoma": 4864,
      "designer": 4865,
      "disc": 4866,
      "grin": 4867,
      "seattle": 4868,
      "robin": 4869,
      "paused": 4870,
      "atlanta": 4871,
      "unusual": 4872,
      "##gate": 4873,
      "praised": 4874,
      "las": 4875,
      "laughing": 4876,
      "satellite": 4877,
      "hungary": 4878,
      "visiting": 4879,
      "##sky": 4880,
      "interesting": 4881,
      "factors": 4882,
      "deck": 4883,
      "poems": 4884,
      "norman": 4885,
      "##water": 4886,
      "stuck": 4887,
      "speaker": 4888,
      "rifle": 4889,
      "domain": 4890,
      "premiered": 4891,
      "##her": 4892,
      "dc": 4893,
      "comics": 4894,
      "actors": 4895,
      "01": 4896,
      "reputation": 4897,
      "eliminated": 4898,
      "8th": 4899,
      "ceiling": 4900,
      "prisoners": 4901,
      "script": 4902,
      "##nce": 4903,
      "leather": 4904,
      "austin": 4905,
      "mississippi": 4906,
      "rapidly": 4907,
      "admiral": 4908,
      "parallel": 4909,
      "charlotte": 4910,
      "guilty": 4911,
      "tools": 4912,
      "gender": 4913,
      "divisions": 4914,
      "fruit": 4915,
      "##bs": 4916,
      "laboratory": 4917,
      "nelson": 4918,
      "fantasy": 4919,
      "marry": 4920,
      "rapid": 4921,
      "aunt": 4922,
      "tribe": 4923,
      "requirements": 4924,
      "aspects": 4925,
      "suicide": 4926,
      "amongst": 4927,
      "adams": 4928,
      "bone": 4929,
      "ukraine": 4930,
      "abc": 4931,
      "kick": 4932,
      "sees": 4933,
      "edinburgh": 4934,
      "clothing": 4935,
      "column": 4936,
      "rough": 4937,
      "gods": 4938,
      "hunting": 4939,
      "broadway": 4940,
      "gathered": 4941,
      "concerns": 4942,
      "##ek": 4943,
      "spending": 4944,
      "ty": 4945,
      "12th": 4946,
      "snapped": 4947,
      "requires": 4948,
      "solar": 4949,
      "bones": 4950,
      "cavalry": 4951,
      "##tta": 4952,
      "iowa": 4953,
      "drinking": 4954,
      "waste": 4955,
      "index": 4956,
      "franklin": 4957,
      "charity": 4958,
      "thompson": 4959,
      "stewart": 4960,
      "tip": 4961,
      "flash": 4962,
      "landscape": 4963,
      "friday": 4964,
      "enjoy": 4965,
      "singh": 4966,
      "poem": 4967,
      "listening": 4968,
      "##back": 4969,
      "eighth": 4970,
      "fred": 4971,
      "differences": 4972,
      "adapted": 4973,
      "bomb": 4974,
      "ukrainian": 4975,
      "surgery": 4976,
      "corporate": 4977,
      "masters": 4978,
      "anywhere": 4979,
      "##more": 4980,
      "waves": 4981,
      "odd": 4982,
      "sean": 4983,
      "portugal": 4984,
      "orleans": 4985,
      "dick": 4986,
      "debate": 4987,
      "kent": 4988,
      "eating": 4989,
      "puerto": 4990,
      "cleared": 4991,
      "96": 4992,
      "expect": 4993,
      "cinema": 4994,
      "97": 4995,
      "guitarist": 4996,
      "blocks": 4997,
      "electrical": 4998,
      "agree": 4999,
      "involving": 5000,
      "depth": 5001,
      "dying": 5002,
      "panel": 5003,
      "struggle": 5004,
      "##ged": 5005,
      "peninsula": 5006,
      "adults": 5007,
      "novels": 5008,
      "emerged": 5009,
      "vienna": 5010,
      "metro": 5011,
      "debuted": 5012,
      "shoes": 5013,
      "tamil": 5014,
      "songwriter": 5015,
      "meets": 5016,
      "prove": 5017,
      "beating": 5018,
      "instance": 5019,
      "heaven": 5020,
      "scared": 5021,
      "sending": 5022,
      "marks": 5023,
      "artistic": 5024,
      "passage": 5025,
      "superior": 5026,
      "03": 5027,
      "significantly": 5028,
      "shopping": 5029,
      "##tive": 5030,
      "retained": 5031,
      "##izing": 5032,
      "malaysia": 5033,
      "technique": 5034,
      "cheeks": 5035,
      "##ola": 5036,
      "warren": 5037,
      "maintenance": 5038,
      "destroy": 5039,
      "extreme": 5040,
      "allied": 5041,
      "120": 5042,
      "appearing": 5043,
      "##yn": 5044,
      "fill": 5045,
      "advice": 5046,
      "alabama": 5047,
      "qualifying": 5048,
      "policies": 5049,
      "cleveland": 5050,
      "hat": 5051,
      "battery": 5052,
      "smart": 5053,
      "authors": 5054,
      "10th": 5055,
      "soundtrack": 5056,
      "acted": 5057,
      "dated": 5058,
      "lb": 5059,
      "glance": 5060,
      "equipped": 5061,
      "coalition": 5062,
      "funny": 5063,
      "outer": 5064,
      "ambassador": 5065,
      "roy": 5066,
      "possibility": 5067,
      "couples": 5068,
      "campbell": 5069,
      "dna": 5070,
      "loose": 5071,
      "ethan": 5072,
      "supplies": 5073,
      "1898": 5074,
      "gonna": 5075,
      "88": 5076,
      "monster": 5077,
      "##res": 5078,
      "shake": 5079,
      "agents": 5080,
      "frequency": 5081,
      "springs": 5082,
      "dogs": 5083,
      "practices": 5084,
      "61": 5085,
      "gang": 5086,
      "plastic": 5087,
      "easier": 5088,
      "suggests": 5089,
      "gulf": 5090,
      "blade": 5091,
      "exposed": 5092,
      "colors": 5093,
      "industries": 5094,
      "markets": 5095,
      "pan": 5096,
      "nervous": 5097,
      "electoral": 5098,
      "charts": 5099,
      "legislation": 5100,
      "ownership": 5101,
      "##idae": 5102,
      "mac": 5103,
      "appointment": 5104,
      "shield": 5105,
      "copy": 5106,
      "assault": 5107,
      "socialist": 5108,
      "abbey": 5109,
      "monument": 5110,
      "license": 5111,
      "throne": 5112,
      "employment": 5113,
      "jay": 5114,
      "93": 5115,
      "replacement": 5116,
      "charter": 5117,
      "cloud": 5118,
      "powered": 5119,
      "suffering": 5120,
      "accounts": 5121,
      "oak": 5122,
      "connecticut": 5123,
      "strongly": 5124,
      "wright": 5125,
      "colour": 5126,
      "crystal": 5127,
      "13th": 5128,
      "context": 5129,
      "welsh": 5130,
      "networks": 5131,
      "voiced": 5132,
      "gabriel": 5133,
      "jerry": 5134,
      "##cing": 5135,
      "forehead": 5136,
      "mp": 5137,
      "##ens": 5138,
      "manage": 5139,
      "schedule": 5140,
      "totally": 5141,
      "remix": 5142,
      "##ii": 5143,
      "forests": 5144,
      "occupation": 5145,
      "print": 5146,
      "nicholas": 5147,
      "brazilian": 5148,
      "strategic": 5149,
      "vampires": 5150,
      "engineers": 5151,
      "76": 5152,
      "roots": 5153,
      "seek": 5154,
      "correct": 5155,
      "instrumental": 5156,
      "und": 5157,
      "alfred": 5158,
      "backed": 5159,
      "hop": 5160,
      "##des": 5161,
      "stanley": 5162,
      "robinson": 5163,
      "traveled": 5164,
      "wayne": 5165,
      "welcome": 5166,
      "austrian": 5167,
      "achieve": 5168,
      "67": 5169,
      "exit": 5170,
      "rates": 5171,
      "1899": 5172,
      "strip": 5173,
      "whereas": 5174,
      "##cs": 5175,
      "sing": 5176,
      "deeply": 5177,
      "adventure": 5178,
      "bobby": 5179,
      "rick": 5180,
      "jamie": 5181,
      "careful": 5182,
      "components": 5183,
      "cap": 5184,
      "useful": 5185,
      "personality": 5186,
      "knee": 5187,
      "##shi": 5188,
      "pushing": 5189,
      "hosts": 5190,
      "02": 5191,
      "protest": 5192,
      "ca": 5193,
      "ottoman": 5194,
      "symphony": 5195,
      "##sis": 5196,
      "63": 5197,
      "boundary": 5198,
      "1890": 5199,
      "processes": 5200,
      "considering": 5201,
      "considerable": 5202,
      "tons": 5203,
      "##work": 5204,
      "##ft": 5205,
      "##nia": 5206,
      "cooper": 5207,
      "trading": 5208,
      "dear": 5209,
      "conduct": 5210,
      "91": 5211,
      "illegal": 5212,
      "apple": 5213,
      "revolutionary": 5214,
      "holiday": 5215,
      "definition": 5216,
      "harder": 5217,
      "##van": 5218,
      "jacob": 5219,
      "circumstances": 5220,
      "destruction": 5221,
      "##lle": 5222,
      "popularity": 5223,
      "grip": 5224,
      "classified": 5225,
      "liverpool": 5226,
      "donald": 5227,
      "baltimore": 5228,
      "flows": 5229,
      "seeking": 5230,
      "honour": 5231,
      "approval": 5232,
      "92": 5233,
      "mechanical": 5234,
      "till": 5235,
      "happening": 5236,
      "statue": 5237,
      "critic": 5238,
      "increasingly": 5239,
      "immediate": 5240,
      "describe": 5241,
      "commerce": 5242,
      "stare": 5243,
      "##ster": 5244,
      "indonesia": 5245,
      "meat": 5246,
      "rounds": 5247,
      "boats": 5248,
      "baker": 5249,
      "orthodox": 5250,
      "depression": 5251,
      "formally": 5252,
      "worn": 5253,
      "naked": 5254,
      "claire": 5255,
      "muttered": 5256,
      "sentence": 5257,
      "11th": 5258,
      "emily": 5259,
      "document": 5260,
      "77": 5261,
      "criticism": 5262,
      "wished": 5263,
      "vessel": 5264,
      "spiritual": 5265,
      "bent": 5266,
      "virgin": 5267,
      "parker": 5268,
      "minimum": 5269,
      "murray": 5270,
      "lunch": 5271,
      "danny": 5272,
      "printed": 5273,
      "compilation": 5274,
      "keyboards": 5275,
      "false": 5276,
      "blow": 5277,
      "belonged": 5278,
      "68": 5279,
      "raising": 5280,
      "78": 5281,
      "cutting": 5282,
      "##board": 5283,
      "pittsburgh": 5284,
      "##up": 5285,
      "9th": 5286,
      "shadows": 5287,
      "81": 5288,
      "hated": 5289,
      "indigenous": 5290,
      "jon": 5291,
      "15th": 5292,
      "barry": 5293,
      "scholar": 5294,
      "ah": 5295,
      "##zer": 5296,
      "oliver": 5297,
      "##gy": 5298,
      "stick": 5299,
      "susan": 5300,
      "meetings": 5301,
      "attracted": 5302,
      "spell": 5303,
      "romantic": 5304,
      "##ver": 5305,
      "ye": 5306,
      "1895": 5307,
      "photo": 5308,
      "demanded": 5309,
      "customers": 5310,
      "##ac": 5311,
      "1896": 5312,
      "logan": 5313,
      "revival": 5314,
      "keys": 5315,
      "modified": 5316,
      "commanded": 5317,
      "jeans": 5318,
      "##ious": 5319,
      "upset": 5320,
      "raw": 5321,
      "phil": 5322,
      "detective": 5323,
      "hiding": 5324,
      "resident": 5325,
      "vincent": 5326,
      "##bly": 5327,
      "experiences": 5328,
      "diamond": 5329,
      "defeating": 5330,
      "coverage": 5331,
      "lucas": 5332,
      "external": 5333,
      "parks": 5334,
      "franchise": 5335,
      "helen": 5336,
      "bible": 5337,
      "successor": 5338,
      "percussion": 5339,
      "celebrated": 5340,
      "il": 5341,
      "lift": 5342,
      "profile": 5343,
      "clan": 5344,
      "romania": 5345,
      "##ied": 5346,
      "mills": 5347,
      "##su": 5348,
      "nobody": 5349,
      "achievement": 5350,
      "shrugged": 5351,
      "fault": 5352,
      "1897": 5353,
      "rhythm": 5354,
      "initiative": 5355,
      "breakfast": 5356,
      "carbon": 5357,
      "700": 5358,
      "69": 5359,
      "lasted": 5360,
      "violent": 5361,
      "74": 5362,
      "wound": 5363,
      "ken": 5364,
      "killer": 5365,
      "gradually": 5366,
      "filmed": 5367,
      "°c": 5368,
      "dollars": 5369,
      "processing": 5370,
      "94": 5371,
      "remove": 5372,
      "criticized": 5373,
      "guests": 5374,
      "sang": 5375,
      "chemistry": 5376,
      "##vin": 5377,
      "legislature": 5378,
      "disney": 5379,
      "##bridge": 5380,
      "uniform": 5381,
      "escaped": 5382,
      "integrated": 5383,
      "proposal": 5384,
      "purple": 5385,
      "denied": 5386,
      "liquid": 5387,
      "karl": 5388,
      "influential": 5389,
      "morris": 5390,
      "nights": 5391,
      "stones": 5392,
      "intense": 5393,
      "experimental": 5394,
      "twisted": 5395,
      "71": 5396,
      "84": 5397,
      "##ld": 5398,
      "pace": 5399,
      "nazi": 5400,
      "mitchell": 5401,
      "ny": 5402,
      "blind": 5403,
      "reporter": 5404,
      "newspapers": 5405,
      "14th": 5406,
      "centers": 5407,
      "burn": 5408,
      "basin": 5409,
      "forgotten": 5410,
      "surviving": 5411,
      "filed": 5412,
      "collections": 5413,
      "monastery": 5414,
      "losses": 5415,
      "manual": 5416,
      "couch": 5417,
      "description": 5418,
      "appropriate": 5419,
      "merely": 5420,
      "tag": 5421,
      "missions": 5422,
      "sebastian": 5423,
      "restoration": 5424,
      "replacing": 5425,
      "triple": 5426,
      "73": 5427,
      "elder": 5428,
      "julia": 5429,
      "warriors": 5430,
      "benjamin": 5431,
      "julian": 5432,
      "convinced": 5433,
      "stronger": 5434,
      "amazing": 5435,
      "declined": 5436,
      "versus": 5437,
      "merchant": 5438,
      "happens": 5439,
      "output": 5440,
      "finland": 5441,
      "bare": 5442,
      "barbara": 5443,
      "absence": 5444,
      "ignored": 5445,
      "dawn": 5446,
      "injuries": 5447,
      "##port": 5448,
      "producers": 5449,
      "##ram": 5450,
      "82": 5451,
      "luis": 5452,
      "##ities": 5453,
      "kw": 5454,
      "admit": 5455,
      "expensive": 5456,
      "electricity": 5457,
      "nba": 5458,
      "exception": 5459,
      "symbol": 5460,
      "##ving": 5461,
      "ladies": 5462,
      "shower": 5463,
      "sheriff": 5464,
      "characteristics": 5465,
      "##je": 5466,
      "aimed": 5467,
      "button": 5468,
      "ratio": 5469,
      "effectively": 5470,
      "summit": 5471,
      "angle": 5472,
      "jury": 5473,
      "bears": 5474,
      "foster": 5475,
      "vessels": 5476,
      "pants": 5477,
      "executed": 5478,
      "evans": 5479,
      "dozen": 5480,
      "advertising": 5481,
      "kicked": 5482,
      "patrol": 5483,
      "1889": 5484,
      "competitions": 5485,
      "lifetime": 5486,
      "principles": 5487,
      "athletics": 5488,
      "##logy": 5489,
      "birmingham": 5490,
      "sponsored": 5491,
      "89": 5492,
      "rob": 5493,
      "nomination": 5494,
      "1893": 5495,
      "acoustic": 5496,
      "##sm": 5497,
      "creature": 5498,
      "longest": 5499,
      "##tra": 5500,
      "credits": 5501,
      "harbor": 5502,
      "dust": 5503,
      "josh": 5504,
      "##so": 5505,
      "territories": 5506,
      "milk": 5507,
      "infrastructure": 5508,
      "completion": 5509,
      "thailand": 5510,
      "indians": 5511,
      "leon": 5512,
      "archbishop": 5513,
      "##sy": 5514,
      "assist": 5515,
      "pitch": 5516,
      "blake": 5517,
      "arrangement": 5518,
      "girlfriend": 5519,
      "serbian": 5520,
      "operational": 5521,
      "hence": 5522,
      "sad": 5523,
      "scent": 5524,
      "fur": 5525,
      "dj": 5526,
      "sessions": 5527,
      "hp": 5528,
      "refer": 5529,
      "rarely": 5530,
      "##ora": 5531,
      "exists": 5532,
      "1892": 5533,
      "##ten": 5534,
      "scientists": 5535,
      "dirty": 5536,
      "penalty": 5537,
      "burst": 5538,
      "portrait": 5539,
      "seed": 5540,
      "79": 5541,
      "pole": 5542,
      "limits": 5543,
      "rival": 5544,
      "1894": 5545,
      "stable": 5546,
      "alpha": 5547,
      "grave": 5548,
      "constitutional": 5549,
      "alcohol": 5550,
      "arrest": 5551,
      "flower": 5552,
      "mystery": 5553,
      "devil": 5554,
      "architectural": 5555,
      "relationships": 5556,
      "greatly": 5557,
      "habitat": 5558,
      "##istic": 5559,
      "larry": 5560,
      "progressive": 5561,
      "remote": 5562,
      "cotton": 5563,
      "##ics": 5564,
      "##ok": 5565,
      "preserved": 5566,
      "reaches": 5567,
      "##ming": 5568,
      "cited": 5569,
      "86": 5570,
      "vast": 5571,
      "scholarship": 5572,
      "decisions": 5573,
      "cbs": 5574,
      "joy": 5575,
      "teach": 5576,
      "1885": 5577,
      "editions": 5578,
      "knocked": 5579,
      "eve": 5580,
      "searching": 5581,
      "partly": 5582,
      "participation": 5583,
      "gap": 5584,
      "animated": 5585,
      "fate": 5586,
      "excellent": 5587,
      "##ett": 5588,
      "na": 5589,
      "87": 5590,
      "alternate": 5591,
      "saints": 5592,
      "youngest": 5593,
      "##ily": 5594,
      "climbed": 5595,
      "##ita": 5596,
      "##tors": 5597,
      "suggest": 5598,
      "##ct": 5599,
      "discussion": 5600,
      "staying": 5601,
      "choir": 5602,
      "lakes": 5603,
      "jacket": 5604,
      "revenue": 5605,
      "nevertheless": 5606,
      "peaked": 5607,
      "instrument": 5608,
      "wondering": 5609,
      "annually": 5610,
      "managing": 5611,
      "neil": 5612,
      "1891": 5613,
      "signing": 5614,
      "terry": 5615,
      "##ice": 5616,
      "apply": 5617,
      "clinical": 5618,
      "brooklyn": 5619,
      "aim": 5620,
      "catherine": 5621,
      "fuck": 5622,
      "farmers": 5623,
      "figured": 5624,
      "ninth": 5625,
      "pride": 5626,
      "hugh": 5627,
      "evolution": 5628,
      "ordinary": 5629,
      "involvement": 5630,
      "comfortable": 5631,
      "shouted": 5632,
      "tech": 5633,
      "encouraged": 5634,
      "taiwan": 5635,
      "representation": 5636,
      "sharing": 5637,
      "##lia": 5638,
      "##em": 5639,
      "panic": 5640,
      "exact": 5641,
      "cargo": 5642,
      "competing": 5643,
      "fat": 5644,
      "cried": 5645,
      "83": 5646,
      "1920s": 5647,
      "occasions": 5648,
      "pa": 5649,
      "cabin": 5650,
      "borders": 5651,
      "utah": 5652,
      "marcus": 5653,
      "##isation": 5654,
      "badly": 5655,
      "muscles": 5656,
      "##ance": 5657,
      "victorian": 5658,
      "transition": 5659,
      "warner": 5660,
      "bet": 5661,
      "permission": 5662,
      "##rin": 5663,
      "slave": 5664,
      "terrible": 5665,
      "similarly": 5666,
      "shares": 5667,
      "seth": 5668,
      "uefa": 5669,
      "possession": 5670,
      "medals": 5671,
      "benefits": 5672,
      "colleges": 5673,
      "lowered": 5674,
      "perfectly": 5675,
      "mall": 5676,
      "transit": 5677,
      "##ye": 5678,
      "##kar": 5679,
      "publisher": 5680,
      "##ened": 5681,
      "harrison": 5682,
      "deaths": 5683,
      "elevation": 5684,
      "##ae": 5685,
      "asleep": 5686,
      "machines": 5687,
      "sigh": 5688,
      "ash": 5689,
      "hardly": 5690,
      "argument": 5691,
      "occasion": 5692,
      "parent": 5693,
      "leo": 5694,
      "decline": 5695,
      "1888": 5696,
      "contribution": 5697,
      "##ua": 5698,
      "concentration": 5699,
      "1000": 5700,
      "opportunities": 5701,
      "hispanic": 5702,
      "guardian": 5703,
      "extent": 5704,
      "emotions": 5705,
      "hips": 5706,
      "mason": 5707,
      "volumes": 5708,
      "bloody": 5709,
      "controversy": 5710,
      "diameter": 5711,
      "steady": 5712,
      "mistake": 5713,
      "phoenix": 5714,
      "identify": 5715,
      "violin": 5716,
      "##sk": 5717,
      "departure": 5718,
      "richmond": 5719,
      "spin": 5720,
      "funeral": 5721,
      "enemies": 5722,
      "1864": 5723,
      "gear": 5724,
      "literally": 5725,
      "connor": 5726,
      "random": 5727,
      "sergeant": 5728,
      "grab": 5729,
      "confusion": 5730,
      "1865": 5731,
      "transmission": 5732,
      "informed": 5733,
      "op": 5734,
      "leaning": 5735,
      "sacred": 5736,
      "suspended": 5737,
      "thinks": 5738,
      "gates": 5739,
      "portland": 5740,
      "luck": 5741,
      "agencies": 5742,
      "yours": 5743,
      "hull": 5744,
      "expert": 5745,
      "muscle": 5746,
      "layer": 5747,
      "practical": 5748,
      "sculpture": 5749,
      "jerusalem": 5750,
      "latest": 5751,
      "lloyd": 5752,
      "statistics": 5753,
      "deeper": 5754,
      "recommended": 5755,
      "warrior": 5756,
      "arkansas": 5757,
      "mess": 5758,
      "supports": 5759,
      "greg": 5760,
      "eagle": 5761,
      "1880": 5762,
      "recovered": 5763,
      "rated": 5764,
      "concerts": 5765,
      "rushed": 5766,
      "##ano": 5767,
      "stops": 5768,
      "eggs": 5769,
      "files": 5770,
      "premiere": 5771,
      "keith": 5772,
      "##vo": 5773,
      "delhi": 5774,
      "turner": 5775,
      "pit": 5776,
      "affair": 5777,
      "belief": 5778,
      "paint": 5779,
      "##zing": 5780,
      "mate": 5781,
      "##ach": 5782,
      "##ev": 5783,
      "victim": 5784,
      "##ology": 5785,
      "withdrew": 5786,
      "bonus": 5787,
      "styles": 5788,
      "fled": 5789,
      "##ud": 5790,
      "glasgow": 5791,
      "technologies": 5792,
      "funded": 5793,
      "nbc": 5794,
      "adaptation": 5795,
      "##ata": 5796,
      "portrayed": 5797,
      "cooperation": 5798,
      "supporters": 5799,
      "judges": 5800,
      "bernard": 5801,
      "justin": 5802,
      "hallway": 5803,
      "ralph": 5804,
      "##ick": 5805,
      "graduating": 5806,
      "controversial": 5807,
      "distant": 5808,
      "continental": 5809,
      "spider": 5810,
      "bite": 5811,
      "##ho": 5812,
      "recognize": 5813,
      "intention": 5814,
      "mixing": 5815,
      "##ese": 5816,
      "egyptian": 5817,
      "bow": 5818,
      "tourism": 5819,
      "suppose": 5820,
      "claiming": 5821,
      "tiger": 5822,
      "dominated": 5823,
      "participants": 5824,
      "vi": 5825,
      "##ru": 5826,
      "nurse": 5827,
      "partially": 5828,
      "tape": 5829,
      "##rum": 5830,
      "psychology": 5831,
      "##rn": 5832,
      "essential": 5833,
      "touring": 5834,
      "duo": 5835,
      "voting": 5836,
      "civilian": 5837,
      "emotional": 5838,
      "channels": 5839,
      "##king": 5840,
      "apparent": 5841,
      "hebrew": 5842,
      "1887": 5843,
      "tommy": 5844,
      "carrier": 5845,
      "intersection": 5846,
      "beast": 5847,
      "hudson": 5848,
      "##gar": 5849,
      "##zo": 5850,
      "lab": 5851,
      "nova": 5852,
      "bench": 5853,
      "discuss": 5854,
      "costa": 5855,
      "##ered": 5856,
      "detailed": 5857,
      "behalf": 5858,
      "drivers": 5859,
      "unfortunately": 5860,
      "obtain": 5861,
      "##lis": 5862,
      "rocky": 5863,
      "##dae": 5864,
      "siege": 5865,
      "friendship": 5866,
      "honey": 5867,
      "##rian": 5868,
      "1861": 5869,
      "amy": 5870,
      "hang": 5871,
      "posted": 5872,
      "governments": 5873,
      "collins": 5874,
      "respond": 5875,
      "wildlife": 5876,
      "preferred": 5877,
      "operator": 5878,
      "##po": 5879,
      "laura": 5880,
      "pregnant": 5881,
      "videos": 5882,
      "dennis": 5883,
      "suspected": 5884,
      "boots": 5885,
      "instantly": 5886,
      "weird": 5887,
      "automatic": 5888,
      "businessman": 5889,
      "alleged": 5890,
      "placing": 5891,
      "throwing": 5892,
      "ph": 5893,
      "mood": 5894,
      "1862": 5895,
      "perry": 5896,
      "venue": 5897,
      "jet": 5898,
      "remainder": 5899,
      "##lli": 5900,
      "##ci": 5901,
      "passion": 5902,
      "biological": 5903,
      "boyfriend": 5904,
      "1863": 5905,
      "dirt": 5906,
      "buffalo": 5907,
      "ron": 5908,
      "segment": 5909,
      "fa": 5910,
      "abuse": 5911,
      "##era": 5912,
      "genre": 5913,
      "thrown": 5914,
      "stroke": 5915,
      "colored": 5916,
      "stress": 5917,
      "exercise": 5918,
      "displayed": 5919,
      "##gen": 5920,
      "struggled": 5921,
      "##tti": 5922,
      "abroad": 5923,
      "dramatic": 5924,
      "wonderful": 5925,
      "thereafter": 5926,
      "madrid": 5927,
      "component": 5928,
      "widespread": 5929,
      "##sed": 5930,
      "tale": 5931,
      "citizen": 5932,
      "todd": 5933,
      "monday": 5934,
      "1886": 5935,
      "vancouver": 5936,
      "overseas": 5937,
      "forcing": 5938,
      "crying": 5939,
      "descent": 5940,
      "##ris": 5941,
      "discussed": 5942,
      "substantial": 5943,
      "ranks": 5944,
      "regime": 5945,
      "1870": 5946,
      "provinces": 5947,
      "switch": 5948,
      "drum": 5949,
      "zane": 5950,
      "ted": 5951,
      "tribes": 5952,
      "proof": 5953,
      "lp": 5954,
      "cream": 5955,
      "researchers": 5956,
      "volunteer": 5957,
      "manor": 5958,
      "silk": 5959,
      "milan": 5960,
      "donated": 5961,
      "allies": 5962,
      "venture": 5963,
      "principle": 5964,
      "delivery": 5965,
      "enterprise": 5966,
      "##ves": 5967,
      "##ans": 5968,
      "bars": 5969,
      "traditionally": 5970,
      "witch": 5971,
      "reminded": 5972,
      "copper": 5973,
      "##uk": 5974,
      "pete": 5975,
      "inter": 5976,
      "links": 5977,
      "colin": 5978,
      "grinned": 5979,
      "elsewhere": 5980,
      "competitive": 5981,
      "frequent": 5982,
      "##oy": 5983,
      "scream": 5984,
      "##hu": 5985,
      "tension": 5986,
      "texts": 5987,
      "submarine": 5988,
      "finnish": 5989,
      "defending": 5990,
      "defend": 5991,
      "pat": 5992,
      "detail": 5993,
      "1884": 5994,
      "affiliated": 5995,
      "stuart": 5996,
      "themes": 5997,
      "villa": 5998,
      "periods": 5999,
      "tool": 6000,
      "belgian": 6001,
      "ruling": 6002,
      "crimes": 6003,
      "answers": 6004,
      "folded": 6005,
      "licensed": 6006,
      "resort": 6007,
      "demolished": 6008,
      "hans": 6009,
      "lucy": 6010,
      "1881": 6011,
      "lion": 6012,
      "traded": 6013,
      "photographs": 6014,
      "writes": 6015,
      "craig": 6016,
      "##fa": 6017,
      "trials": 6018,
      "generated": 6019,
      "beth": 6020,
      "noble": 6021,
      "debt": 6022,
      "percentage": 6023,
      "yorkshire": 6024,
      "erected": 6025,
      "ss": 6026,
      "viewed": 6027,
      "grades": 6028,
      "confidence": 6029,
      "ceased": 6030,
      "islam": 6031,
      "telephone": 6032,
      "retail": 6033,
      "##ible": 6034,
      "chile": 6035,
      "m²": 6036,
      "roberts": 6037,
      "sixteen": 6038,
      "##ich": 6039,
      "commented": 6040,
      "hampshire": 6041,
      "innocent": 6042,
      "dual": 6043,
      "pounds": 6044,
      "checked": 6045,
      "regulations": 6046,
      "afghanistan": 6047,
      "sung": 6048,
      "rico": 6049,
      "liberty": 6050,
      "assets": 6051,
      "bigger": 6052,
      "options": 6053,
      "angels": 6054,
      "relegated": 6055,
      "tribute": 6056,
      "wells": 6057,
      "attending": 6058,
      "leaf": 6059,
      "##yan": 6060,
      "butler": 6061,
      "romanian": 6062,
      "forum": 6063,
      "monthly": 6064,
      "lisa": 6065,
      "patterns": 6066,
      "gmina": 6067,
      "##tory": 6068,
      "madison": 6069,
      "hurricane": 6070,
      "rev": 6071,
      "##ians": 6072,
      "bristol": 6073,
      "##ula": 6074,
      "elite": 6075,
      "valuable": 6076,
      "disaster": 6077,
      "democracy": 6078,
      "awareness": 6079,
      "germans": 6080,
      "freyja": 6081,
      "##ins": 6082,
      "loop": 6083,
      "absolutely": 6084,
      "paying": 6085,
      "populations": 6086,
      "maine": 6087,
      "sole": 6088,
      "prayer": 6089,
      "spencer": 6090,
      "releases": 6091,
      "doorway": 6092,
      "bull": 6093,
      "##ani": 6094,
      "lover": 6095,
      "midnight": 6096,
      "conclusion": 6097,
      "##sson": 6098,
      "thirteen": 6099,
      "lily": 6100,
      "mediterranean": 6101,
      "##lt": 6102,
      "nhl": 6103,
      "proud": 6104,
      "sample": 6105,
      "##hill": 6106,
      "drummer": 6107,
      "guinea": 6108,
      "##ova": 6109,
      "murphy": 6110,
      "climb": 6111,
      "##ston": 6112,
      "instant": 6113,
      "attributed": 6114,
      "horn": 6115,
      "ain": 6116,
      "railways": 6117,
      "steven": 6118,
      "##ao": 6119,
      "autumn": 6120,
      "ferry": 6121,
      "opponent": 6122,
      "root": 6123,
      "traveling": 6124,
      "secured": 6125,
      "corridor": 6126,
      "stretched": 6127,
      "tales": 6128,
      "sheet": 6129,
      "trinity": 6130,
      "cattle": 6131,
      "helps": 6132,
      "indicates": 6133,
      "manhattan": 6134,
      "murdered": 6135,
      "fitted": 6136,
      "1882": 6137,
      "gentle": 6138,
      "grandmother": 6139,
      "mines": 6140,
      "shocked": 6141,
      "vegas": 6142,
      "produces": 6143,
      "##light": 6144,
      "caribbean": 6145,
      "##ou": 6146,
      "belong": 6147,
      "continuous": 6148,
      "desperate": 6149,
      "drunk": 6150,
      "historically": 6151,
      "trio": 6152,
      "waved": 6153,
      "raf": 6154,
      "dealing": 6155,
      "nathan": 6156,
      "bat": 6157,
      "murmured": 6158,
      "interrupted": 6159,
      "residing": 6160,
      "scientist": 6161,
      "pioneer": 6162,
      "harold": 6163,
      "aaron": 6164,
      "##net": 6165,
      "delta": 6166,
      "attempting": 6167,
      "minority": 6168,
      "mini": 6169,
      "believes": 6170,
      "chorus": 6171,
      "tend": 6172,
      "lots": 6173,
      "eyed": 6174,
      "indoor": 6175,
      "load": 6176,
      "shots": 6177,
      "updated": 6178,
      "jail": 6179,
      "##llo": 6180,
      "concerning": 6181,
      "connecting": 6182,
      "wealth": 6183,
      "##ved": 6184,
      "slaves": 6185,
      "arrive": 6186,
      "rangers": 6187,
      "sufficient": 6188,
      "rebuilt": 6189,
      "##wick": 6190,
      "cardinal": 6191,
      "flood": 6192,
      "muhammad": 6193,
      "whenever": 6194,
      "relation": 6195,
      "runners": 6196,
      "moral": 6197,
      "repair": 6198,
      "viewers": 6199,
      "arriving": 6200,
      "revenge": 6201,
      "punk": 6202,
      "assisted": 6203,
      "bath": 6204,
      "fairly": 6205,
      "breathe": 6206,
      "lists": 6207,
      "innings": 6208,
      "illustrated": 6209,
      "whisper": 6210,
      "nearest": 6211,
      "voters": 6212,
      "clinton": 6213,
      "ties": 6214,
      "ultimate": 6215,
      "screamed": 6216,
      "beijing": 6217,
      "lions": 6218,
      "andre": 6219,
      "fictional": 6220,
      "gathering": 6221,
      "comfort": 6222,
      "radar": 6223,
      "suitable": 6224,
      "dismissed": 6225,
      "hms": 6226,
      "ban": 6227,
      "pine": 6228,
      "wrist": 6229,
      "atmosphere": 6230,
      "voivodeship": 6231,
      "bid": 6232,
      "timber": 6233,
      "##ned": 6234,
      "##nan": 6235,
      "giants": 6236,
      "##ane": 6237,
      "cameron": 6238,
      "recovery": 6239,
      "uss": 6240,
      "identical": 6241,
      "categories": 6242,
      "switched": 6243,
      "serbia": 6244,
      "laughter": 6245,
      "noah": 6246,
      "ensemble": 6247,
      "therapy": 6248,
      "peoples": 6249,
      "touching": 6250,
      "##off": 6251,
      "locally": 6252,
      "pearl": 6253,
      "platforms": 6254,
      "everywhere": 6255,
      "ballet": 6256,
      "tables": 6257,
      "lanka": 6258,
      "herbert": 6259,
      "outdoor": 6260,
      "toured": 6261,
      "derek": 6262,
      "1883": 6263,
      "spaces": 6264,
      "contested": 6265,
      "swept": 6266,
      "1878": 6267,
      "exclusive": 6268,
      "slight": 6269,
      "connections": 6270,
      "##dra": 6271,
      "winds": 6272,
      "prisoner": 6273,
      "collective": 6274,
      "bangladesh": 6275,
      "tube": 6276,
      "publicly": 6277,
      "wealthy": 6278,
      "thai": 6279,
      "##ys": 6280,
      "isolated": 6281,
      "select": 6282,
      "##ric": 6283,
      "insisted": 6284,
      "pen": 6285,
      "fortune": 6286,
      "ticket": 6287,
      "spotted": 6288,
      "reportedly": 6289,
      "animation": 6290,
      "enforcement": 6291,
      "tanks": 6292,
      "110": 6293,
      "decides": 6294,
      "wider": 6295,
      "lowest": 6296,
      "owen": 6297,
      "##time": 6298,
      "nod": 6299,
      "hitting": 6300,
      "##hn": 6301,
      "gregory": 6302,
      "furthermore": 6303,
      "magazines": 6304,
      "fighters": 6305,
      "solutions": 6306,
      "##ery": 6307,
      "pointing": 6308,
      "requested": 6309,
      "peru": 6310,
      "reed": 6311,
      "chancellor": 6312,
      "knights": 6313,
      "mask": 6314,
      "worker": 6315,
      "eldest": 6316,
      "flames": 6317,
      "reduction": 6318,
      "1860": 6319,
      "volunteers": 6320,
      "##tis": 6321,
      "reporting": 6322,
      "##hl": 6323,
      "wire": 6324,
      "advisory": 6325,
      "endemic": 6326,
      "origins": 6327,
      "settlers": 6328,
      "pursue": 6329,
      "knock": 6330,
      "consumer": 6331,
      "1876": 6332,
      "eu": 6333,
      "compound": 6334,
      "creatures": 6335,
      "mansion": 6336,
      "sentenced": 6337,
      "ivan": 6338,
      "deployed": 6339,
      "guitars": 6340,
      "frowned": 6341,
      "involves": 6342,
      "mechanism": 6343,
      "kilometers": 6344,
      "perspective": 6345,
      "shops": 6346,
      "maps": 6347,
      "terminus": 6348,
      "duncan": 6349,
      "alien": 6350,
      "fist": 6351,
      "bridges": 6352,
      "##pers": 6353,
      "heroes": 6354,
      "fed": 6355,
      "derby": 6356,
      "swallowed": 6357,
      "##ros": 6358,
      "patent": 6359,
      "sara": 6360,
      "illness": 6361,
      "characterized": 6362,
      "adventures": 6363,
      "slide": 6364,
      "hawaii": 6365,
      "jurisdiction": 6366,
      "##op": 6367,
      "organised": 6368,
      "##side": 6369,
      "adelaide": 6370,
      "walks": 6371,
      "biology": 6372,
      "se": 6373,
      "##ties": 6374,
      "rogers": 6375,
      "swing": 6376,
      "tightly": 6377,
      "boundaries": 6378,
      "##rie": 6379,
      "prepare": 6380,
      "implementation": 6381,
      "stolen": 6382,
      "##sha": 6383,
      "certified": 6384,
      "colombia": 6385,
      "edwards": 6386,
      "garage": 6387,
      "##mm": 6388,
      "recalled": 6389,
      "##ball": 6390,
      "rage": 6391,
      "harm": 6392,
      "nigeria": 6393,
      "breast": 6394,
      "##ren": 6395,
      "furniture": 6396,
      "pupils": 6397,
      "settle": 6398,
      "##lus": 6399,
      "cuba": 6400,
      "balls": 6401,
      "client": 6402,
      "alaska": 6403,
      "21st": 6404,
      "linear": 6405,
      "thrust": 6406,
      "celebration": 6407,
      "latino": 6408,
      "genetic": 6409,
      "terror": 6410,
      "##cia": 6411,
      "##ening": 6412,
      "lightning": 6413,
      "fee": 6414,
      "witness": 6415,
      "lodge": 6416,
      "establishing": 6417,
      "skull": 6418,
      "##ique": 6419,
      "earning": 6420,
      "hood": 6421,
      "##ei": 6422,
      "rebellion": 6423,
      "wang": 6424,
      "sporting": 6425,
      "warned": 6426,
      "missile": 6427,
      "devoted": 6428,
      "activist": 6429,
      "porch": 6430,
      "worship": 6431,
      "fourteen": 6432,
      "package": 6433,
      "1871": 6434,
      "decorated": 6435,
      "##shire": 6436,
      "housed": 6437,
      "##ock": 6438,
      "chess": 6439,
      "sailed": 6440,
      "doctors": 6441,
      "oscar": 6442,
      "joan": 6443,
      "treat": 6444,
      "garcia": 6445,
      "harbour": 6446,
      "jeremy": 6447,
      "##ire": 6448,
      "traditions": 6449,
      "dominant": 6450,
      "jacques": 6451,
      "##gon": 6452,
      "##wan": 6453,
      "relocated": 6454,
      "1879": 6455,
      "amendment": 6456,
      "sized": 6457,
      "companion": 6458,
      "simultaneously": 6459,
      "volleyball": 6460,
      "spun": 6461,
      "acre": 6462,
      "increases": 6463,
      "stopping": 6464,
      "loves": 6465,
      "belongs": 6466,
      "affect": 6467,
      "drafted": 6468,
      "tossed": 6469,
      "scout": 6470,
      "battles": 6471,
      "1875": 6472,
      "filming": 6473,
      "shoved": 6474,
      "munich": 6475,
      "tenure": 6476,
      "vertical": 6477,
      "romance": 6478,
      "pc": 6479,
      "##cher": 6480,
      "argue": 6481,
      "##ical": 6482,
      "craft": 6483,
      "ranging": 6484,
      "www": 6485,
      "opens": 6486,
      "honest": 6487,
      "tyler": 6488,
      "yesterday": 6489,
      "virtual": 6490,
      "##let": 6491,
      "muslims": 6492,
      "reveal": 6493,
      "snake": 6494,
      "immigrants": 6495,
      "radical": 6496,
      "screaming": 6497,
      "speakers": 6498,
      "firing": 6499,
      "saving": 6500,
      "belonging": 6501,
      "ease": 6502,
      "lighting": 6503,
      "prefecture": 6504,
      "blame": 6505,
      "farmer": 6506,
      "hungry": 6507,
      "grows": 6508,
      "rubbed": 6509,
      "beam": 6510,
      "sur": 6511,
      "subsidiary": 6512,
      "##cha": 6513,
      "armenian": 6514,
      "sao": 6515,
      "dropping": 6516,
      "conventional": 6517,
      "##fer": 6518,
      "microsoft": 6519,
      "reply": 6520,
      "qualify": 6521,
      "spots": 6522,
      "1867": 6523,
      "sweat": 6524,
      "festivals": 6525,
      "##ken": 6526,
      "immigration": 6527,
      "physician": 6528,
      "discover": 6529,
      "exposure": 6530,
      "sandy": 6531,
      "explanation": 6532,
      "isaac": 6533,
      "implemented": 6534,
      "##fish": 6535,
      "hart": 6536,
      "initiated": 6537,
      "connect": 6538,
      "stakes": 6539,
      "presents": 6540,
      "heights": 6541,
      "householder": 6542,
      "pleased": 6543,
      "tourist": 6544,
      "regardless": 6545,
      "slip": 6546,
      "closest": 6547,
      "##ction": 6548,
      "surely": 6549,
      "sultan": 6550,
      "brings": 6551,
      "riley": 6552,
      "preparation": 6553,
      "aboard": 6554,
      "slammed": 6555,
      "baptist": 6556,
      "experiment": 6557,
      "ongoing": 6558,
      "interstate": 6559,
      "organic": 6560,
      "playoffs": 6561,
      "##ika": 6562,
      "1877": 6563,
      "130": 6564,
      "##tar": 6565,
      "hindu": 6566,
      "error": 6567,
      "tours": 6568,
      "tier": 6569,
      "plenty": 6570,
      "arrangements": 6571,
      "talks": 6572,
      "trapped": 6573,
      "excited": 6574,
      "sank": 6575,
      "ho": 6576,
      "athens": 6577,
      "1872": 6578,
      "denver": 6579,
      "welfare": 6580,
      "suburb": 6581,
      "athletes": 6582,
      "trick": 6583,
      "diverse": 6584,
      "belly": 6585,
      "exclusively": 6586,
      "yelled": 6587,
      "1868": 6588,
      "##med": 6589,
      "conversion": 6590,
      "##ette": 6591,
      "1874": 6592,
      "internationally": 6593,
      "computers": 6594,
      "conductor": 6595,
      "abilities": 6596,
      "sensitive": 6597,
      "hello": 6598,
      "dispute": 6599,
      "measured": 6600,
      "globe": 6601,
      "rocket": 6602,
      "prices": 6603,
      "amsterdam": 6604,
      "flights": 6605,
      "tigers": 6606,
      "inn": 6607,
      "municipalities": 6608,
      "emotion": 6609,
      "references": 6610,
      "3d": 6611,
      "##mus": 6612,
      "explains": 6613,
      "airlines": 6614,
      "manufactured": 6615,
      "pm": 6616,
      "archaeological": 6617,
      "1873": 6618,
      "interpretation": 6619,
      "devon": 6620,
      "comment": 6621,
      "##ites": 6622,
      "settlements": 6623,
      "kissing": 6624,
      "absolute": 6625,
      "improvement": 6626,
      "suite": 6627,
      "impressed": 6628,
      "barcelona": 6629,
      "sullivan": 6630,
      "jefferson": 6631,
      "towers": 6632,
      "jesse": 6633,
      "julie": 6634,
      "##tin": 6635,
      "##lu": 6636,
      "grandson": 6637,
      "hi": 6638,
      "gauge": 6639,
      "regard": 6640,
      "rings": 6641,
      "interviews": 6642,
      "trace": 6643,
      "raymond": 6644,
      "thumb": 6645,
      "departments": 6646,
      "burns": 6647,
      "serial": 6648,
      "bulgarian": 6649,
      "scores": 6650,
      "demonstrated": 6651,
      "##ix": 6652,
      "1866": 6653,
      "kyle": 6654,
      "alberta": 6655,
      "underneath": 6656,
      "romanized": 6657,
      "##ward": 6658,
      "relieved": 6659,
      "acquisition": 6660,
      "phrase": 6661,
      "cliff": 6662,
      "reveals": 6663,
      "han": 6664,
      "cuts": 6665,
      "merger": 6666,
      "custom": 6667,
      "##dar": 6668,
      "nee": 6669,
      "gilbert": 6670,
      "graduation": 6671,
      "##nts": 6672,
      "assessment": 6673,
      "cafe": 6674,
      "difficulty": 6675,
      "demands": 6676,
      "swung": 6677,
      "democrat": 6678,
      "jennifer": 6679,
      "commons": 6680,
      "1940s": 6681,
      "grove": 6682,
      "##yo": 6683,
      "completing": 6684,
      "focuses": 6685,
      "sum": 6686,
      "substitute": 6687,
      "bearing": 6688,
      "stretch": 6689,
      "reception": 6690,
      "##py": 6691,
      "reflected": 6692,
      "essentially": 6693,
      "destination": 6694,
      "pairs": 6695,
      "##ched": 6696,
      "survival": 6697,
      "resource": 6698,
      "##bach": 6699,
      "promoting": 6700,
      "doubles": 6701,
      "messages": 6702,
      "tear": 6703,
      "##down": 6704,
      "##fully": 6705,
      "parade": 6706,
      "florence": 6707,
      "harvey": 6708,
      "incumbent": 6709,
      "partial": 6710,
      "framework": 6711,
      "900": 6712,
      "pedro": 6713,
      "frozen": 6714,
      "procedure": 6715,
      "olivia": 6716,
      "controls": 6717,
      "##mic": 6718,
      "shelter": 6719,
      "personally": 6720,
      "temperatures": 6721,
      "##od": 6722,
      "brisbane": 6723,
      "tested": 6724,
      "sits": 6725,
      "marble": 6726,
      "comprehensive": 6727,
      "oxygen": 6728,
      "leonard": 6729,
      "##kov": 6730,
      "inaugural": 6731,
      "iranian": 6732,
      "referring": 6733,
      "quarters": 6734,
      "attitude": 6735,
      "##ivity": 6736,
      "mainstream": 6737,
      "lined": 6738,
      "mars": 6739,
      "dakota": 6740,
      "norfolk": 6741,
      "unsuccessful": 6742,
      "##°": 6743,
      "explosion": 6744,
      "helicopter": 6745,
      "congressional": 6746,
      "##sing": 6747,
      "inspector": 6748,
      "bitch": 6749,
      "seal": 6750,
      "departed": 6751,
      "divine": 6752,
      "##ters": 6753,
      "coaching": 6754,
      "examination": 6755,
      "punishment": 6756,
      "manufacturer": 6757,
      "sink": 6758,
      "columns": 6759,
      "unincorporated": 6760,
      "signals": 6761,
      "nevada": 6762,
      "squeezed": 6763,
      "dylan": 6764,
      "dining": 6765,
      "photos": 6766,
      "martial": 6767,
      "manuel": 6768,
      "eighteen": 6769,
      "elevator": 6770,
      "brushed": 6771,
      "plates": 6772,
      "ministers": 6773,
      "ivy": 6774,
      "congregation": 6775,
      "##len": 6776,
      "slept": 6777,
      "specialized": 6778,
      "taxes": 6779,
      "curve": 6780,
      "restricted": 6781,
      "negotiations": 6782,
      "likes": 6783,
      "statistical": 6784,
      "arnold": 6785,
      "inspiration": 6786,
      "execution": 6787,
      "bold": 6788,
      "intermediate": 6789,
      "significance": 6790,
      "margin": 6791,
      "ruler": 6792,
      "wheels": 6793,
      "gothic": 6794,
      "intellectual": 6795,
      "dependent": 6796,
      "listened": 6797,
      "eligible": 6798,
      "buses": 6799,
      "widow": 6800,
      "syria": 6801,
      "earn": 6802,
      "cincinnati": 6803,
      "collapsed": 6804,
      "recipient": 6805,
      "secrets": 6806,
      "accessible": 6807,
      "philippine": 6808,
      "maritime": 6809,
      "goddess": 6810,
      "clerk": 6811,
      "surrender": 6812,
      "breaks": 6813,
      "playoff": 6814,
      "database": 6815,
      "##ified": 6816,
      "##lon": 6817,
      "ideal": 6818,
      "beetle": 6819,
      "aspect": 6820,
      "soap": 6821,
      "regulation": 6822,
      "strings": 6823,
      "expand": 6824,
      "anglo": 6825,
      "shorter": 6826,
      "crosses": 6827,
      "retreat": 6828,
      "tough": 6829,
      "coins": 6830,
      "wallace": 6831,
      "directions": 6832,
      "pressing": 6833,
      "##oon": 6834,
      "shipping": 6835,
      "locomotives": 6836,
      "comparison": 6837,
      "topics": 6838,
      "nephew": 6839,
      "##mes": 6840,
      "distinction": 6841,
      "honors": 6842,
      "travelled": 6843,
      "sierra": 6844,
      "ibn": 6845,
      "##over": 6846,
      "fortress": 6847,
      "sa": 6848,
      "recognised": 6849,
      "carved": 6850,
      "1869": 6851,
      "clients": 6852,
      "##dan": 6853,
      "intent": 6854,
      "##mar": 6855,
      "coaches": 6856,
      "describing": 6857,
      "bread": 6858,
      "##ington": 6859,
      "beaten": 6860,
      "northwestern": 6861,
      "##ona": 6862,
      "merit": 6863,
      "youtube": 6864,
      "collapse": 6865,
      "challenges": 6866,
      "em": 6867,
      "historians": 6868,
      "objective": 6869,
      "submitted": 6870,
      "virus": 6871,
      "attacking": 6872,
      "drake": 6873,
      "assume": 6874,
      "##ere": 6875,
      "diseases": 6876,
      "marc": 6877,
      "stem": 6878,
      "leeds": 6879,
      "##cus": 6880,
      "##ab": 6881,
      "farming": 6882,
      "glasses": 6883,
      "##lock": 6884,
      "visits": 6885,
      "nowhere": 6886,
      "fellowship": 6887,
      "relevant": 6888,
      "carries": 6889,
      "restaurants": 6890,
      "experiments": 6891,
      "101": 6892,
      "constantly": 6893,
      "bases": 6894,
      "targets": 6895,
      "shah": 6896,
      "tenth": 6897,
      "opponents": 6898,
      "verse": 6899,
      "territorial": 6900,
      "##ira": 6901,
      "writings": 6902,
      "corruption": 6903,
      "##hs": 6904,
      "instruction": 6905,
      "inherited": 6906,
      "reverse": 6907,
      "emphasis": 6908,
      "##vic": 6909,
      "employee": 6910,
      "arch": 6911,
      "keeps": 6912,
      "rabbi": 6913,
      "watson": 6914,
      "payment": 6915,
      "uh": 6916,
      "##ala": 6917,
      "nancy": 6918,
      "##tre": 6919,
      "venice": 6920,
      "fastest": 6921,
      "sexy": 6922,
      "banned": 6923,
      "adrian": 6924,
      "properly": 6925,
      "ruth": 6926,
      "touchdown": 6927,
      "dollar": 6928,
      "boards": 6929,
      "metre": 6930,
      "circles": 6931,
      "edges": 6932,
      "favour": 6933,
      "comments": 6934,
      "ok": 6935,
      "travels": 6936,
      "liberation": 6937,
      "scattered": 6938,
      "firmly": 6939,
      "##ular": 6940,
      "holland": 6941,
      "permitted": 6942,
      "diesel": 6943,
      "kenya": 6944,
      "den": 6945,
      "originated": 6946,
      "##ral": 6947,
      "demons": 6948,
      "resumed": 6949,
      "dragged": 6950,
      "rider": 6951,
      "##rus": 6952,
      "servant": 6953,
      "blinked": 6954,
      "extend": 6955,
      "torn": 6956,
      "##ias": 6957,
      "##sey": 6958,
      "input": 6959,
      "meal": 6960,
      "everybody": 6961,
      "cylinder": 6962,
      "kinds": 6963,
      "camps": 6964,
      "##fe": 6965,
      "bullet": 6966,
      "logic": 6967,
      "##wn": 6968,
      "croatian": 6969,
      "evolved": 6970,
      "healthy": 6971,
      "fool": 6972,
      "chocolate": 6973,
      "wise": 6974,
      "preserve": 6975,
      "pradesh": 6976,
      "##ess": 6977,
      "respective": 6978,
      "1850": 6979,
      "##ew": 6980,
      "chicken": 6981,
      "artificial": 6982,
      "gross": 6983,
      "corresponding": 6984,
      "convicted": 6985,
      "cage": 6986,
      "caroline": 6987,
      "dialogue": 6988,
      "##dor": 6989,
      "narrative": 6990,
      "stranger": 6991,
      "mario": 6992,
      "br": 6993,
      "christianity": 6994,
      "failing": 6995,
      "trent": 6996,
      "commanding": 6997,
      "buddhist": 6998,
      "1848": 6999,
      "maurice": 7000,
      "focusing": 7001,
      "yale": 7002,
      "bike": 7003,
      "altitude": 7004,
      "##ering": 7005,
      "mouse": 7006,
      "revised": 7007,
      "##sley": 7008,
      "veteran": 7009,
      "##ig": 7010,
      "pulls": 7011,
      "theology": 7012,
      "crashed": 7013,
      "campaigns": 7014,
      "legion": 7015,
      "##ability": 7016,
      "drag": 7017,
      "excellence": 7018,
      "customer": 7019,
      "cancelled": 7020,
      "intensity": 7021,
      "excuse": 7022,
      "##lar": 7023,
      "liga": 7024,
      "participating": 7025,
      "contributing": 7026,
      "printing": 7027,
      "##burn": 7028,
      "variable": 7029,
      "##rk": 7030,
      "curious": 7031,
      "bin": 7032,
      "legacy": 7033,
      "renaissance": 7034,
      "##my": 7035,
      "symptoms": 7036,
      "binding": 7037,
      "vocalist": 7038,
      "dancer": 7039,
      "##nie": 7040,
      "grammar": 7041,
      "gospel": 7042,
      "democrats": 7043,
      "ya": 7044,
      "enters": 7045,
      "sc": 7046,
      "diplomatic": 7047,
      "hitler": 7048,
      "##ser": 7049,
      "clouds": 7050,
      "mathematical": 7051,
      "quit": 7052,
      "defended": 7053,
      "oriented": 7054,
      "##heim": 7055,
      "fundamental": 7056,
      "hardware": 7057,
      "impressive": 7058,
      "equally": 7059,
      "convince": 7060,
      "confederate": 7061,
      "guilt": 7062,
      "chuck": 7063,
      "sliding": 7064,
      "##ware": 7065,
      "magnetic": 7066,
      "narrowed": 7067,
      "petersburg": 7068,
      "bulgaria": 7069,
      "otto": 7070,
      "phd": 7071,
      "skill": 7072,
      "##ama": 7073,
      "reader": 7074,
      "hopes": 7075,
      "pitcher": 7076,
      "reservoir": 7077,
      "hearts": 7078,
      "automatically": 7079,
      "expecting": 7080,
      "mysterious": 7081,
      "bennett": 7082,
      "extensively": 7083,
      "imagined": 7084,
      "seeds": 7085,
      "monitor": 7086,
      "fix": 7087,
      "##ative": 7088,
      "journalism": 7089,
      "struggling": 7090,
      "signature": 7091,
      "ranch": 7092,
      "encounter": 7093,
      "photographer": 7094,
      "observation": 7095,
      "protests": 7096,
      "##pin": 7097,
      "influences": 7098,
      "##hr": 7099,
      "calendar": 7100,
      "##all": 7101,
      "cruz": 7102,
      "croatia": 7103,
      "locomotive": 7104,
      "hughes": 7105,
      "naturally": 7106,
      "shakespeare": 7107,
      "basement": 7108,
      "hook": 7109,
      "uncredited": 7110,
      "faded": 7111,
      "theories": 7112,
      "approaches": 7113,
      "dare": 7114,
      "phillips": 7115,
      "filling": 7116,
      "fury": 7117,
      "obama": 7118,
      "##ain": 7119,
      "efficient": 7120,
      "arc": 7121,
      "deliver": 7122,
      "min": 7123,
      "raid": 7124,
      "breeding": 7125,
      "inducted": 7126,
      "leagues": 7127,
      "efficiency": 7128,
      "axis": 7129,
      "montana": 7130,
      "eagles": 7131,
      "##ked": 7132,
      "supplied": 7133,
      "instructions": 7134,
      "karen": 7135,
      "picking": 7136,
      "indicating": 7137,
      "trap": 7138,
      "anchor": 7139,
      "practically": 7140,
      "christians": 7141,
      "tomb": 7142,
      "vary": 7143,
      "occasional": 7144,
      "electronics": 7145,
      "lords": 7146,
      "readers": 7147,
      "newcastle": 7148,
      "faint": 7149,
      "innovation": 7150,
      "collect": 7151,
      "situations": 7152,
      "engagement": 7153,
      "160": 7154,
      "claude": 7155,
      "mixture": 7156,
      "##feld": 7157,
      "peer": 7158,
      "tissue": 7159,
      "logo": 7160,
      "lean": 7161,
      "##ration": 7162,
      "°f": 7163,
      "floors": 7164,
      "##ven": 7165,
      "architects": 7166,
      "reducing": 7167,
      "##our": 7168,
      "##ments": 7169,
      "rope": 7170,
      "1859": 7171,
      "ottawa": 7172,
      "##har": 7173,
      "samples": 7174,
      "banking": 7175,
      "declaration": 7176,
      "proteins": 7177,
      "resignation": 7178,
      "francois": 7179,
      "saudi": 7180,
      "advocate": 7181,
      "exhibited": 7182,
      "armor": 7183,
      "twins": 7184,
      "divorce": 7185,
      "##ras": 7186,
      "abraham": 7187,
      "reviewed": 7188,
      "jo": 7189,
      "temporarily": 7190,
      "matrix": 7191,
      "physically": 7192,
      "pulse": 7193,
      "curled": 7194,
      "##ena": 7195,
      "difficulties": 7196,
      "bengal": 7197,
      "usage": 7198,
      "##ban": 7199,
      "annie": 7200,
      "riders": 7201,
      "certificate": 7202,
      "##pi": 7203,
      "holes": 7204,
      "warsaw": 7205,
      "distinctive": 7206,
      "jessica": 7207,
      "##mon": 7208,
      "mutual": 7209,
      "1857": 7210,
      "customs": 7211,
      "circular": 7212,
      "eugene": 7213,
      "removal": 7214,
      "loaded": 7215,
      "mere": 7216,
      "vulnerable": 7217,
      "depicted": 7218,
      "generations": 7219,
      "dame": 7220,
      "heir": 7221,
      "enormous": 7222,
      "lightly": 7223,
      "climbing": 7224,
      "pitched": 7225,
      "lessons": 7226,
      "pilots": 7227,
      "nepal": 7228,
      "ram": 7229,
      "google": 7230,
      "preparing": 7231,
      "brad": 7232,
      "louise": 7233,
      "renowned": 7234,
      "##₂": 7235,
      "liam": 7236,
      "##ably": 7237,
      "plaza": 7238,
      "shaw": 7239,
      "sophie": 7240,
      "brilliant": 7241,
      "bills": 7242,
      "##bar": 7243,
      "##nik": 7244,
      "fucking": 7245,
      "mainland": 7246,
      "server": 7247,
      "pleasant": 7248,
      "seized": 7249,
      "veterans": 7250,
      "jerked": 7251,
      "fail": 7252,
      "beta": 7253,
      "brush": 7254,
      "radiation": 7255,
      "stored": 7256,
      "warmth": 7257,
      "southeastern": 7258,
      "nate": 7259,
      "sin": 7260,
      "raced": 7261,
      "berkeley": 7262,
      "joke": 7263,
      "athlete": 7264,
      "designation": 7265,
      "trunk": 7266,
      "##low": 7267,
      "roland": 7268,
      "qualification": 7269,
      "archives": 7270,
      "heels": 7271,
      "artwork": 7272,
      "receives": 7273,
      "judicial": 7274,
      "reserves": 7275,
      "##bed": 7276,
      "woke": 7277,
      "installation": 7278,
      "abu": 7279,
      "floating": 7280,
      "fake": 7281,
      "lesser": 7282,
      "excitement": 7283,
      "interface": 7284,
      "concentrated": 7285,
      "addressed": 7286,
      "characteristic": 7287,
      "amanda": 7288,
      "saxophone": 7289,
      "monk": 7290,
      "auto": 7291,
      "##bus": 7292,
      "releasing": 7293,
      "egg": 7294,
      "dies": 7295,
      "interaction": 7296,
      "defender": 7297,
      "ce": 7298,
      "outbreak": 7299,
      "glory": 7300,
      "loving": 7301,
      "##bert": 7302,
      "sequel": 7303,
      "consciousness": 7304,
      "http": 7305,
      "awake": 7306,
      "ski": 7307,
      "enrolled": 7308,
      "##ress": 7309,
      "handling": 7310,
      "rookie": 7311,
      "brow": 7312,
      "somebody": 7313,
      "biography": 7314,
      "warfare": 7315,
      "amounts": 7316,
      "contracts": 7317,
      "presentation": 7318,
      "fabric": 7319,
      "dissolved": 7320,
      "challenged": 7321,
      "meter": 7322,
      "psychological": 7323,
      "lt": 7324,
      "elevated": 7325,
      "rally": 7326,
      "accurate": 7327,
      "##tha": 7328,
      "hospitals": 7329,
      "undergraduate": 7330,
      "specialist": 7331,
      "venezuela": 7332,
      "exhibit": 7333,
      "shed": 7334,
      "nursing": 7335,
      "protestant": 7336,
      "fluid": 7337,
      "structural": 7338,
      "footage": 7339,
      "jared": 7340,
      "consistent": 7341,
      "prey": 7342,
      "##ska": 7343,
      "succession": 7344,
      "reflect": 7345,
      "exile": 7346,
      "lebanon": 7347,
      "wiped": 7348,
      "suspect": 7349,
      "shanghai": 7350,
      "resting": 7351,
      "integration": 7352,
      "preservation": 7353,
      "marvel": 7354,
      "variant": 7355,
      "pirates": 7356,
      "sheep": 7357,
      "rounded": 7358,
      "capita": 7359,
      "sailing": 7360,
      "colonies": 7361,
      "manuscript": 7362,
      "deemed": 7363,
      "variations": 7364,
      "clarke": 7365,
      "functional": 7366,
      "emerging": 7367,
      "boxing": 7368,
      "relaxed": 7369,
      "curse": 7370,
      "azerbaijan": 7371,
      "heavyweight": 7372,
      "nickname": 7373,
      "editorial": 7374,
      "rang": 7375,
      "grid": 7376,
      "tightened": 7377,
      "earthquake": 7378,
      "flashed": 7379,
      "miguel": 7380,
      "rushing": 7381,
      "##ches": 7382,
      "improvements": 7383,
      "boxes": 7384,
      "brooks": 7385,
      "180": 7386,
      "consumption": 7387,
      "molecular": 7388,
      "felix": 7389,
      "societies": 7390,
      "repeatedly": 7391,
      "variation": 7392,
      "aids": 7393,
      "civic": 7394,
      "graphics": 7395,
      "professionals": 7396,
      "realm": 7397,
      "autonomous": 7398,
      "receiver": 7399,
      "delayed": 7400,
      "workshop": 7401,
      "militia": 7402,
      "chairs": 7403,
      "trump": 7404,
      "canyon": 7405,
      "##point": 7406,
      "harsh": 7407,
      "extending": 7408,
      "lovely": 7409,
      "happiness": 7410,
      "##jan": 7411,
      "stake": 7412,
      "eyebrows": 7413,
      "embassy": 7414,
      "wellington": 7415,
      "hannah": 7416,
      "##ella": 7417,
      "sony": 7418,
      "corners": 7419,
      "bishops": 7420,
      "swear": 7421,
      "cloth": 7422,
      "contents": 7423,
      "xi": 7424,
      "namely": 7425,
      "commenced": 7426,
      "1854": 7427,
      "stanford": 7428,
      "nashville": 7429,
      "courage": 7430,
      "graphic": 7431,
      "commitment": 7432,
      "garrison": 7433,
      "##bin": 7434,
      "hamlet": 7435,
      "clearing": 7436,
      "rebels": 7437,
      "attraction": 7438,
      "literacy": 7439,
      "cooking": 7440,
      "ruins": 7441,
      "temples": 7442,
      "jenny": 7443,
      "humanity": 7444,
      "celebrate": 7445,
      "hasn": 7446,
      "freight": 7447,
      "sixty": 7448,
      "rebel": 7449,
      "bastard": 7450,
      "##art": 7451,
      "newton": 7452,
      "##ada": 7453,
      "deer": 7454,
      "##ges": 7455,
      "##ching": 7456,
      "smiles": 7457,
      "delaware": 7458,
      "singers": 7459,
      "##ets": 7460,
      "approaching": 7461,
      "assists": 7462,
      "flame": 7463,
      "##ph": 7464,
      "boulevard": 7465,
      "barrel": 7466,
      "planted": 7467,
      "##ome": 7468,
      "pursuit": 7469,
      "##sia": 7470,
      "consequences": 7471,
      "posts": 7472,
      "shallow": 7473,
      "invitation": 7474,
      "rode": 7475,
      "depot": 7476,
      "ernest": 7477,
      "kane": 7478,
      "rod": 7479,
      "concepts": 7480,
      "preston": 7481,
      "topic": 7482,
      "chambers": 7483,
      "striking": 7484,
      "blast": 7485,
      "arrives": 7486,
      "descendants": 7487,
      "montgomery": 7488,
      "ranges": 7489,
      "worlds": 7490,
      "##lay": 7491,
      "##ari": 7492,
      "span": 7493,
      "chaos": 7494,
      "praise": 7495,
      "##ag": 7496,
      "fewer": 7497,
      "1855": 7498,
      "sanctuary": 7499,
      "mud": 7500,
      "fbi": 7501,
      "##ions": 7502,
      "programmes": 7503,
      "maintaining": 7504,
      "unity": 7505,
      "harper": 7506,
      "bore": 7507,
      "handsome": 7508,
      "closure": 7509,
      "tournaments": 7510,
      "thunder": 7511,
      "nebraska": 7512,
      "linda": 7513,
      "facade": 7514,
      "puts": 7515,
      "satisfied": 7516,
      "argentine": 7517,
      "dale": 7518,
      "cork": 7519,
      "dome": 7520,
      "panama": 7521,
      "##yl": 7522,
      "1858": 7523,
      "tasks": 7524,
      "experts": 7525,
      "##ates": 7526,
      "feeding": 7527,
      "equation": 7528,
      "##las": 7529,
      "##ida": 7530,
      "##tu": 7531,
      "engage": 7532,
      "bryan": 7533,
      "##ax": 7534,
      "um": 7535,
      "quartet": 7536,
      "melody": 7537,
      "disbanded": 7538,
      "sheffield": 7539,
      "blocked": 7540,
      "gasped": 7541,
      "delay": 7542,
      "kisses": 7543,
      "maggie": 7544,
      "connects": 7545,
      "##non": 7546,
      "sts": 7547,
      "poured": 7548,
      "creator": 7549,
      "publishers": 7550,
      "##we": 7551,
      "guided": 7552,
      "ellis": 7553,
      "extinct": 7554,
      "hug": 7555,
      "gaining": 7556,
      "##ord": 7557,
      "complicated": 7558,
      "##bility": 7559,
      "poll": 7560,
      "clenched": 7561,
      "investigate": 7562,
      "##use": 7563,
      "thereby": 7564,
      "quantum": 7565,
      "spine": 7566,
      "cdp": 7567,
      "humor": 7568,
      "kills": 7569,
      "administered": 7570,
      "semifinals": 7571,
      "##du": 7572,
      "encountered": 7573,
      "ignore": 7574,
      "##bu": 7575,
      "commentary": 7576,
      "##maker": 7577,
      "bother": 7578,
      "roosevelt": 7579,
      "140": 7580,
      "plains": 7581,
      "halfway": 7582,
      "flowing": 7583,
      "cultures": 7584,
      "crack": 7585,
      "imprisoned": 7586,
      "neighboring": 7587,
      "airline": 7588,
      "##ses": 7589,
      "##view": 7590,
      "##mate": 7591,
      "##ec": 7592,
      "gather": 7593,
      "wolves": 7594,
      "marathon": 7595,
      "transformed": 7596,
      "##ill": 7597,
      "cruise": 7598,
      "organisations": 7599,
      "carol": 7600,
      "punch": 7601,
      "exhibitions": 7602,
      "numbered": 7603,
      "alarm": 7604,
      "ratings": 7605,
      "daddy": 7606,
      "silently": 7607,
      "##stein": 7608,
      "queens": 7609,
      "colours": 7610,
      "impression": 7611,
      "guidance": 7612,
      "liu": 7613,
      "tactical": 7614,
      "##rat": 7615,
      "marshal": 7616,
      "della": 7617,
      "arrow": 7618,
      "##ings": 7619,
      "rested": 7620,
      "feared": 7621,
      "tender": 7622,
      "owns": 7623,
      "bitter": 7624,
      "advisor": 7625,
      "escort": 7626,
      "##ides": 7627,
      "spare": 7628,
      "farms": 7629,
      "grants": 7630,
      "##ene": 7631,
      "dragons": 7632,
      "encourage": 7633,
      "colleagues": 7634,
      "cameras": 7635,
      "##und": 7636,
      "sucked": 7637,
      "pile": 7638,
      "spirits": 7639,
      "prague": 7640,
      "statements": 7641,
      "suspension": 7642,
      "landmark": 7643,
      "fence": 7644,
      "torture": 7645,
      "recreation": 7646,
      "bags": 7647,
      "permanently": 7648,
      "survivors": 7649,
      "pond": 7650,
      "spy": 7651,
      "predecessor": 7652,
      "bombing": 7653,
      "coup": 7654,
      "##og": 7655,
      "protecting": 7656,
      "transformation": 7657,
      "glow": 7658,
      "##lands": 7659,
      "##book": 7660,
      "dug": 7661,
      "priests": 7662,
      "andrea": 7663,
      "feat": 7664,
      "barn": 7665,
      "jumping": 7666,
      "##chen": 7667,
      "##ologist": 7668,
      "##con": 7669,
      "casualties": 7670,
      "stern": 7671,
      "auckland": 7672,
      "pipe": 7673,
      "serie": 7674,
      "revealing": 7675,
      "ba": 7676,
      "##bel": 7677,
      "trevor": 7678,
      "mercy": 7679,
      "spectrum": 7680,
      "yang": 7681,
      "consist": 7682,
      "governing": 7683,
      "collaborated": 7684,
      "possessed": 7685,
      "epic": 7686,
      "comprises": 7687,
      "blew": 7688,
      "shane": 7689,
      "##ack": 7690,
      "lopez": 7691,
      "honored": 7692,
      "magical": 7693,
      "sacrifice": 7694,
      "judgment": 7695,
      "perceived": 7696,
      "hammer": 7697,
      "mtv": 7698,
      "baronet": 7699,
      "tune": 7700,
      "das": 7701,
      "missionary": 7702,
      "sheets": 7703,
      "350": 7704,
      "neutral": 7705,
      "oral": 7706,
      "threatening": 7707,
      "attractive": 7708,
      "shade": 7709,
      "aims": 7710,
      "seminary": 7711,
      "##master": 7712,
      "estates": 7713,
      "1856": 7714,
      "michel": 7715,
      "wounds": 7716,
      "refugees": 7717,
      "manufacturers": 7718,
      "##nic": 7719,
      "mercury": 7720,
      "syndrome": 7721,
      "porter": 7722,
      "##iya": 7723,
      "##din": 7724,
      "hamburg": 7725,
      "identification": 7726,
      "upstairs": 7727,
      "purse": 7728,
      "widened": 7729,
      "pause": 7730,
      "cared": 7731,
      "breathed": 7732,
      "affiliate": 7733,
      "santiago": 7734,
      "prevented": 7735,
      "celtic": 7736,
      "fisher": 7737,
      "125": 7738,
      "recruited": 7739,
      "byzantine": 7740,
      "reconstruction": 7741,
      "farther": 7742,
      "##mp": 7743,
      "diet": 7744,
      "sake": 7745,
      "au": 7746,
      "spite": 7747,
      "sensation": 7748,
      "##ert": 7749,
      "blank": 7750,
      "separation": 7751,
      "105": 7752,
      "##hon": 7753,
      "vladimir": 7754,
      "armies": 7755,
      "anime": 7756,
      "##lie": 7757,
      "accommodate": 7758,
      "orbit": 7759,
      "cult": 7760,
      "sofia": 7761,
      "archive": 7762,
      "##ify": 7763,
      "##box": 7764,
      "founders": 7765,
      "sustained": 7766,
      "disorder": 7767,
      "honours": 7768,
      "northeastern": 7769,
      "mia": 7770,
      "crops": 7771,
      "violet": 7772,
      "threats": 7773,
      "blanket": 7774,
      "fires": 7775,
      "canton": 7776,
      "followers": 7777,
      "southwestern": 7778,
      "prototype": 7779,
      "voyage": 7780,
      "assignment": 7781,
      "altered": 7782,
      "moderate": 7783,
      "protocol": 7784,
      "pistol": 7785,
      "##eo": 7786,
      "questioned": 7787,
      "brass": 7788,
      "lifting": 7789,
      "1852": 7790,
      "math": 7791,
      "authored": 7792,
      "##ual": 7793,
      "doug": 7794,
      "dimensional": 7795,
      "dynamic": 7796,
      "##san": 7797,
      "1851": 7798,
      "pronounced": 7799,
      "grateful": 7800,
      "quest": 7801,
      "uncomfortable": 7802,
      "boom": 7803,
      "presidency": 7804,
      "stevens": 7805,
      "relating": 7806,
      "politicians": 7807,
      "chen": 7808,
      "barrier": 7809,
      "quinn": 7810,
      "diana": 7811,
      "mosque": 7812,
      "tribal": 7813,
      "cheese": 7814,
      "palmer": 7815,
      "portions": 7816,
      "sometime": 7817,
      "chester": 7818,
      "treasure": 7819,
      "wu": 7820,
      "bend": 7821,
      "download": 7822,
      "millions": 7823,
      "reforms": 7824,
      "registration": 7825,
      "##osa": 7826,
      "consequently": 7827,
      "monitoring": 7828,
      "ate": 7829,
      "preliminary": 7830,
      "brandon": 7831,
      "invented": 7832,
      "ps": 7833,
      "eaten": 7834,
      "exterior": 7835,
      "intervention": 7836,
      "ports": 7837,
      "documented": 7838,
      "log": 7839,
      "displays": 7840,
      "lecture": 7841,
      "sally": 7842,
      "favourite": 7843,
      "##itz": 7844,
      "vermont": 7845,
      "lo": 7846,
      "invisible": 7847,
      "isle": 7848,
      "breed": 7849,
      "##ator": 7850,
      "journalists": 7851,
      "relay": 7852,
      "speaks": 7853,
      "backward": 7854,
      "explore": 7855,
      "midfielder": 7856,
      "actively": 7857,
      "stefan": 7858,
      "procedures": 7859,
      "cannon": 7860,
      "blond": 7861,
      "kenneth": 7862,
      "centered": 7863,
      "servants": 7864,
      "chains": 7865,
      "libraries": 7866,
      "malcolm": 7867,
      "essex": 7868,
      "henri": 7869,
      "slavery": 7870,
      "##hal": 7871,
      "facts": 7872,
      "fairy": 7873,
      "coached": 7874,
      "cassie": 7875,
      "cats": 7876,
      "washed": 7877,
      "cop": 7878,
      "##fi": 7879,
      "announcement": 7880,
      "item": 7881,
      "2000s": 7882,
      "vinyl": 7883,
      "activated": 7884,
      "marco": 7885,
      "frontier": 7886,
      "growled": 7887,
      "curriculum": 7888,
      "##das": 7889,
      "loyal": 7890,
      "accomplished": 7891,
      "leslie": 7892,
      "ritual": 7893,
      "kenny": 7894,
      "##00": 7895,
      "vii": 7896,
      "napoleon": 7897,
      "hollow": 7898,
      "hybrid": 7899,
      "jungle": 7900,
      "stationed": 7901,
      "friedrich": 7902,
      "counted": 7903,
      "##ulated": 7904,
      "platinum": 7905,
      "theatrical": 7906,
      "seated": 7907,
      "col": 7908,
      "rubber": 7909,
      "glen": 7910,
      "1840": 7911,
      "diversity": 7912,
      "healing": 7913,
      "extends": 7914,
      "id": 7915,
      "provisions": 7916,
      "administrator": 7917,
      "columbus": 7918,
      "##oe": 7919,
      "tributary": 7920,
      "te": 7921,
      "assured": 7922,
      "org": 7923,
      "##uous": 7924,
      "prestigious": 7925,
      "examined": 7926,
      "lectures": 7927,
      "grammy": 7928,
      "ronald": 7929,
      "associations": 7930,
      "bailey": 7931,
      "allan": 7932,
      "essays": 7933,
      "flute": 7934,
      "believing": 7935,
      "consultant": 7936,
      "proceedings": 7937,
      "travelling": 7938,
      "1853": 7939,
      "kit": 7940,
      "kerala": 7941,
      "yugoslavia": 7942,
      "buddy": 7943,
      "methodist": 7944,
      "##ith": 7945,
      "burial": 7946,
      "centres": 7947,
      "batman": 7948,
      "##nda": 7949,
      "discontinued": 7950,
      "bo": 7951,
      "dock": 7952,
      "stockholm": 7953,
      "lungs": 7954,
      "severely": 7955,
      "##nk": 7956,
      "citing": 7957,
      "manga": 7958,
      "##ugh": 7959,
      "steal": 7960,
      "mumbai": 7961,
      "iraqi": 7962,
      "robot": 7963,
      "celebrity": 7964,
      "bride": 7965,
      "broadcasts": 7966,
      "abolished": 7967,
      "pot": 7968,
      "joel": 7969,
      "overhead": 7970,
      "franz": 7971,
      "packed": 7972,
      "reconnaissance": 7973,
      "johann": 7974,
      "acknowledged": 7975,
      "introduce": 7976,
      "handled": 7977,
      "doctorate": 7978,
      "developments": 7979,
      "drinks": 7980,
      "alley": 7981,
      "palestine": 7982,
      "##nis": 7983,
      "##aki": 7984,
      "proceeded": 7985,
      "recover": 7986,
      "bradley": 7987,
      "grain": 7988,
      "patch": 7989,
      "afford": 7990,
      "infection": 7991,
      "nationalist": 7992,
      "legendary": 7993,
      "##ath": 7994,
      "interchange": 7995,
      "virtually": 7996,
      "gen": 7997,
      "gravity": 7998,
      "exploration": 7999,
      "amber": 8000,
      "vital": 8001,
      "wishes": 8002,
      "powell": 8003,
      "doctrine": 8004,
      "elbow": 8005,
      "screenplay": 8006,
      "##bird": 8007,
      "contribute": 8008,
      "indonesian": 8009,
      "pet": 8010,
      "creates": 8011,
      "##com": 8012,
      "enzyme": 8013,
      "kylie": 8014,
      "discipline": 8015,
      "drops": 8016,
      "manila": 8017,
      "hunger": 8018,
      "##ien": 8019,
      "layers": 8020,
      "suffer": 8021,
      "fever": 8022,
      "bits": 8023,
      "monica": 8024,
      "keyboard": 8025,
      "manages": 8026,
      "##hood": 8027,
      "searched": 8028,
      "appeals": 8029,
      "##bad": 8030,
      "testament": 8031,
      "grande": 8032,
      "reid": 8033,
      "##war": 8034,
      "beliefs": 8035,
      "congo": 8036,
      "##ification": 8037,
      "##dia": 8038,
      "si": 8039,
      "requiring": 8040,
      "##via": 8041,
      "casey": 8042,
      "1849": 8043,
      "regret": 8044,
      "streak": 8045,
      "rape": 8046,
      "depends": 8047,
      "syrian": 8048,
      "sprint": 8049,
      "pound": 8050,
      "tourists": 8051,
      "upcoming": 8052,
      "pub": 8053,
      "##xi": 8054,
      "tense": 8055,
      "##els": 8056,
      "practiced": 8057,
      "echo": 8058,
      "nationwide": 8059,
      "guild": 8060,
      "motorcycle": 8061,
      "liz": 8062,
      "##zar": 8063,
      "chiefs": 8064,
      "desired": 8065,
      "elena": 8066,
      "bye": 8067,
      "precious": 8068,
      "absorbed": 8069,
      "relatives": 8070,
      "booth": 8071,
      "pianist": 8072,
      "##mal": 8073,
      "citizenship": 8074,
      "exhausted": 8075,
      "wilhelm": 8076,
      "##ceae": 8077,
      "##hed": 8078,
      "noting": 8079,
      "quarterback": 8080,
      "urge": 8081,
      "hectares": 8082,
      "##gue": 8083,
      "ace": 8084,
      "holly": 8085,
      "##tal": 8086,
      "blonde": 8087,
      "davies": 8088,
      "parked": 8089,
      "sustainable": 8090,
      "stepping": 8091,
      "twentieth": 8092,
      "airfield": 8093,
      "galaxy": 8094,
      "nest": 8095,
      "chip": 8096,
      "##nell": 8097,
      "tan": 8098,
      "shaft": 8099,
      "paulo": 8100,
      "requirement": 8101,
      "##zy": 8102,
      "paradise": 8103,
      "tobacco": 8104,
      "trans": 8105,
      "renewed": 8106,
      "vietnamese": 8107,
      "##cker": 8108,
      "##ju": 8109,
      "suggesting": 8110,
      "catching": 8111,
      "holmes": 8112,
      "enjoying": 8113,
      "md": 8114,
      "trips": 8115,
      "colt": 8116,
      "holder": 8117,
      "butterfly": 8118,
      "nerve": 8119,
      "reformed": 8120,
      "cherry": 8121,
      "bowling": 8122,
      "trailer": 8123,
      "carriage": 8124,
      "goodbye": 8125,
      "appreciate": 8126,
      "toy": 8127,
      "joshua": 8128,
      "interactive": 8129,
      "enabled": 8130,
      "involve": 8131,
      "##kan": 8132,
      "collar": 8133,
      "determination": 8134,
      "bunch": 8135,
      "facebook": 8136,
      "recall": 8137,
      "shorts": 8138,
      "superintendent": 8139,
      "episcopal": 8140,
      "frustration": 8141,
      "giovanni": 8142,
      "nineteenth": 8143,
      "laser": 8144,
      "privately": 8145,
      "array": 8146,
      "circulation": 8147,
      "##ovic": 8148,
      "armstrong": 8149,
      "deals": 8150,
      "painful": 8151,
      "permit": 8152,
      "discrimination": 8153,
      "##wi": 8154,
      "aires": 8155,
      "retiring": 8156,
      "cottage": 8157,
      "ni": 8158,
      "##sta": 8159,
      "horizon": 8160,
      "ellen": 8161,
      "jamaica": 8162,
      "ripped": 8163,
      "fernando": 8164,
      "chapters": 8165,
      "playstation": 8166,
      "patron": 8167,
      "lecturer": 8168,
      "navigation": 8169,
      "behaviour": 8170,
      "genes": 8171,
      "georgian": 8172,
      "export": 8173,
      "solomon": 8174,
      "rivals": 8175,
      "swift": 8176,
      "seventeen": 8177,
      "rodriguez": 8178,
      "princeton": 8179,
      "independently": 8180,
      "sox": 8181,
      "1847": 8182,
      "arguing": 8183,
      "entity": 8184,
      "casting": 8185,
      "hank": 8186,
      "criteria": 8187,
      "oakland": 8188,
      "geographic": 8189,
      "milwaukee": 8190,
      "reflection": 8191,
      "expanding": 8192,
      "conquest": 8193,
      "dubbed": 8194,
      "##tv": 8195,
      "halt": 8196,
      "brave": 8197,
      "brunswick": 8198,
      "doi": 8199,
      "arched": 8200,
      "curtis": 8201,
      "divorced": 8202,
      "predominantly": 8203,
      "somerset": 8204,
      "streams": 8205,
      "ugly": 8206,
      "zoo": 8207,
      "horrible": 8208,
      "curved": 8209,
      "buenos": 8210,
      "fierce": 8211,
      "dictionary": 8212,
      "vector": 8213,
      "theological": 8214,
      "unions": 8215,
      "handful": 8216,
      "stability": 8217,
      "chan": 8218,
      "punjab": 8219,
      "segments": 8220,
      "##lly": 8221,
      "altar": 8222,
      "ignoring": 8223,
      "gesture": 8224,
      "monsters": 8225,
      "pastor": 8226,
      "##stone": 8227,
      "thighs": 8228,
      "unexpected": 8229,
      "operators": 8230,
      "abruptly": 8231,
      "coin": 8232,
      "compiled": 8233,
      "associates": 8234,
      "improving": 8235,
      "migration": 8236,
      "pin": 8237,
      "##ose": 8238,
      "compact": 8239,
      "collegiate": 8240,
      "reserved": 8241,
      "##urs": 8242,
      "quarterfinals": 8243,
      "roster": 8244,
      "restore": 8245,
      "assembled": 8246,
      "hurry": 8247,
      "oval": 8248,
      "##cies": 8249,
      "1846": 8250,
      "flags": 8251,
      "martha": 8252,
      "##del": 8253,
      "victories": 8254,
      "sharply": 8255,
      "##rated": 8256,
      "argues": 8257,
      "deadly": 8258,
      "neo": 8259,
      "drawings": 8260,
      "symbols": 8261,
      "performer": 8262,
      "##iel": 8263,
      "griffin": 8264,
      "restrictions": 8265,
      "editing": 8266,
      "andrews": 8267,
      "java": 8268,
      "journals": 8269,
      "arabia": 8270,
      "compositions": 8271,
      "dee": 8272,
      "pierce": 8273,
      "removing": 8274,
      "hindi": 8275,
      "casino": 8276,
      "runway": 8277,
      "civilians": 8278,
      "minds": 8279,
      "nasa": 8280,
      "hotels": 8281,
      "##zation": 8282,
      "refuge": 8283,
      "rent": 8284,
      "retain": 8285,
      "potentially": 8286,
      "conferences": 8287,
      "suburban": 8288,
      "conducting": 8289,
      "##tto": 8290,
      "##tions": 8291,
      "##tle": 8292,
      "descended": 8293,
      "massacre": 8294,
      "##cal": 8295,
      "ammunition": 8296,
      "terrain": 8297,
      "fork": 8298,
      "souls": 8299,
      "counts": 8300,
      "chelsea": 8301,
      "durham": 8302,
      "drives": 8303,
      "cab": 8304,
      "##bank": 8305,
      "perth": 8306,
      "realizing": 8307,
      "palestinian": 8308,
      "finn": 8309,
      "simpson": 8310,
      "##dal": 8311,
      "betty": 8312,
      "##ule": 8313,
      "moreover": 8314,
      "particles": 8315,
      "cardinals": 8316,
      "tent": 8317,
      "evaluation": 8318,
      "extraordinary": 8319,
      "##oid": 8320,
      "inscription": 8321,
      "##works": 8322,
      "wednesday": 8323,
      "chloe": 8324,
      "maintains": 8325,
      "panels": 8326,
      "ashley": 8327,
      "trucks": 8328,
      "##nation": 8329,
      "cluster": 8330,
      "sunlight": 8331,
      "strikes": 8332,
      "zhang": 8333,
      "##wing": 8334,
      "dialect": 8335,
      "canon": 8336,
      "##ap": 8337,
      "tucked": 8338,
      "##ws": 8339,
      "collecting": 8340,
      "##mas": 8341,
      "##can": 8342,
      "##sville": 8343,
      "maker": 8344,
      "quoted": 8345,
      "evan": 8346,
      "franco": 8347,
      "aria": 8348,
      "buying": 8349,
      "cleaning": 8350,
      "eva": 8351,
      "closet": 8352,
      "provision": 8353,
      "apollo": 8354,
      "clinic": 8355,
      "rat": 8356,
      "##ez": 8357,
      "necessarily": 8358,
      "ac": 8359,
      "##gle": 8360,
      "##ising": 8361,
      "venues": 8362,
      "flipped": 8363,
      "cent": 8364,
      "spreading": 8365,
      "trustees": 8366,
      "checking": 8367,
      "authorized": 8368,
      "##sco": 8369,
      "disappointed": 8370,
      "##ado": 8371,
      "notion": 8372,
      "duration": 8373,
      "trumpet": 8374,
      "hesitated": 8375,
      "topped": 8376,
      "brussels": 8377,
      "rolls": 8378,
      "theoretical": 8379,
      "hint": 8380,
      "define": 8381,
      "aggressive": 8382,
      "repeat": 8383,
      "wash": 8384,
      "peaceful": 8385,
      "optical": 8386,
      "width": 8387,
      "allegedly": 8388,
      "mcdonald": 8389,
      "strict": 8390,
      "copyright": 8391,
      "##illa": 8392,
      "investors": 8393,
      "mar": 8394,
      "jam": 8395,
      "witnesses": 8396,
      "sounding": 8397,
      "miranda": 8398,
      "michelle": 8399,
      "privacy": 8400,
      "hugo": 8401,
      "harmony": 8402,
      "##pp": 8403,
      "valid": 8404,
      "lynn": 8405,
      "glared": 8406,
      "nina": 8407,
      "102": 8408,
      "headquartered": 8409,
      "diving": 8410,
      "boarding": 8411,
      "gibson": 8412,
      "##ncy": 8413,
      "albanian": 8414,
      "marsh": 8415,
      "routine": 8416,
      "dealt": 8417,
      "enhanced": 8418,
      "er": 8419,
      "intelligent": 8420,
      "substance": 8421,
      "targeted": 8422,
      "enlisted": 8423,
      "discovers": 8424,
      "spinning": 8425,
      "observations": 8426,
      "pissed": 8427,
      "smoking": 8428,
      "rebecca": 8429,
      "capitol": 8430,
      "visa": 8431,
      "varied": 8432,
      "costume": 8433,
      "seemingly": 8434,
      "indies": 8435,
      "compensation": 8436,
      "surgeon": 8437,
      "thursday": 8438,
      "arsenal": 8439,
      "westminster": 8440,
      "suburbs": 8441,
      "rid": 8442,
      "anglican": 8443,
      "##ridge": 8444,
      "knots": 8445,
      "foods": 8446,
      "alumni": 8447,
      "lighter": 8448,
      "fraser": 8449,
      "whoever": 8450,
      "portal": 8451,
      "scandal": 8452,
      "##ray": 8453,
      "gavin": 8454,
      "advised": 8455,
      "instructor": 8456,
      "flooding": 8457,
      "terrorist": 8458,
      "##ale": 8459,
      "teenage": 8460,
      "interim": 8461,
      "senses": 8462,
      "duck": 8463,
      "teen": 8464,
      "thesis": 8465,
      "abby": 8466,
      "eager": 8467,
      "overcome": 8468,
      "##ile": 8469,
      "newport": 8470,
      "glenn": 8471,
      "rises": 8472,
      "shame": 8473,
      "##cc": 8474,
      "prompted": 8475,
      "priority": 8476,
      "forgot": 8477,
      "bomber": 8478,
      "nicolas": 8479,
      "protective": 8480,
      "360": 8481,
      "cartoon": 8482,
      "katherine": 8483,
      "breeze": 8484,
      "lonely": 8485,
      "trusted": 8486,
      "henderson": 8487,
      "richardson": 8488,
      "relax": 8489,
      "banner": 8490,
      "candy": 8491,
      "palms": 8492,
      "remarkable": 8493,
      "##rio": 8494,
      "legends": 8495,
      "cricketer": 8496,
      "essay": 8497,
      "ordained": 8498,
      "edmund": 8499,
      "rifles": 8500,
      "trigger": 8501,
      "##uri": 8502,
      "##away": 8503,
      "sail": 8504,
      "alert": 8505,
      "1830": 8506,
      "audiences": 8507,
      "penn": 8508,
      "sussex": 8509,
      "siblings": 8510,
      "pursued": 8511,
      "indianapolis": 8512,
      "resist": 8513,
      "rosa": 8514,
      "consequence": 8515,
      "succeed": 8516,
      "avoided": 8517,
      "1845": 8518,
      "##ulation": 8519,
      "inland": 8520,
      "##tie": 8521,
      "##nna": 8522,
      "counsel": 8523,
      "profession": 8524,
      "chronicle": 8525,
      "hurried": 8526,
      "##una": 8527,
      "eyebrow": 8528,
      "eventual": 8529,
      "bleeding": 8530,
      "innovative": 8531,
      "cure": 8532,
      "##dom": 8533,
      "committees": 8534,
      "accounting": 8535,
      "con": 8536,
      "scope": 8537,
      "hardy": 8538,
      "heather": 8539,
      "tenor": 8540,
      "gut": 8541,
      "herald": 8542,
      "codes": 8543,
      "tore": 8544,
      "scales": 8545,
      "wagon": 8546,
      "##oo": 8547,
      "luxury": 8548,
      "tin": 8549,
      "prefer": 8550,
      "fountain": 8551,
      "triangle": 8552,
      "bonds": 8553,
      "darling": 8554,
      "convoy": 8555,
      "dried": 8556,
      "traced": 8557,
      "beings": 8558,
      "troy": 8559,
      "accidentally": 8560,
      "slam": 8561,
      "findings": 8562,
      "smelled": 8563,
      "joey": 8564,
      "lawyers": 8565,
      "outcome": 8566,
      "steep": 8567,
      "bosnia": 8568,
      "configuration": 8569,
      "shifting": 8570,
      "toll": 8571,
      "brook": 8572,
      "performers": 8573,
      "lobby": 8574,
      "philosophical": 8575,
      "construct": 8576,
      "shrine": 8577,
      "aggregate": 8578,
      "boot": 8579,
      "cox": 8580,
      "phenomenon": 8581,
      "savage": 8582,
      "insane": 8583,
      "solely": 8584,
      "reynolds": 8585,
      "lifestyle": 8586,
      "##ima": 8587,
      "nationally": 8588,
      "holdings": 8589,
      "consideration": 8590,
      "enable": 8591,
      "edgar": 8592,
      "mo": 8593,
      "mama": 8594,
      "##tein": 8595,
      "fights": 8596,
      "relegation": 8597,
      "chances": 8598,
      "atomic": 8599,
      "hub": 8600,
      "conjunction": 8601,
      "awkward": 8602,
      "reactions": 8603,
      "currency": 8604,
      "finale": 8605,
      "kumar": 8606,
      "underwent": 8607,
      "steering": 8608,
      "elaborate": 8609,
      "gifts": 8610,
      "comprising": 8611,
      "melissa": 8612,
      "veins": 8613,
      "reasonable": 8614,
      "sunshine": 8615,
      "chi": 8616,
      "solve": 8617,
      "trails": 8618,
      "inhabited": 8619,
      "elimination": 8620,
      "ethics": 8621,
      "huh": 8622,
      "ana": 8623,
      "molly": 8624,
      "consent": 8625,
      "apartments": 8626,
      "layout": 8627,
      "marines": 8628,
      "##ces": 8629,
      "hunters": 8630,
      "bulk": 8631,
      "##oma": 8632,
      "hometown": 8633,
      "##wall": 8634,
      "##mont": 8635,
      "cracked": 8636,
      "reads": 8637,
      "neighbouring": 8638,
      "withdrawn": 8639,
      "admission": 8640,
      "wingspan": 8641,
      "damned": 8642,
      "anthology": 8643,
      "lancashire": 8644,
      "brands": 8645,
      "batting": 8646,
      "forgive": 8647,
      "cuban": 8648,
      "awful": 8649,
      "##lyn": 8650,
      "104": 8651,
      "dimensions": 8652,
      "imagination": 8653,
      "##ade": 8654,
      "dante": 8655,
      "##ship": 8656,
      "tracking": 8657,
      "desperately": 8658,
      "goalkeeper": 8659,
      "##yne": 8660,
      "groaned": 8661,
      "workshops": 8662,
      "confident": 8663,
      "burton": 8664,
      "gerald": 8665,
      "milton": 8666,
      "circus": 8667,
      "uncertain": 8668,
      "slope": 8669,
      "copenhagen": 8670,
      "sophia": 8671,
      "fog": 8672,
      "philosopher": 8673,
      "portraits": 8674,
      "accent": 8675,
      "cycling": 8676,
      "varying": 8677,
      "gripped": 8678,
      "larvae": 8679,
      "garrett": 8680,
      "specified": 8681,
      "scotia": 8682,
      "mature": 8683,
      "luther": 8684,
      "kurt": 8685,
      "rap": 8686,
      "##kes": 8687,
      "aerial": 8688,
      "750": 8689,
      "ferdinand": 8690,
      "heated": 8691,
      "es": 8692,
      "transported": 8693,
      "##shan": 8694,
      "safely": 8695,
      "nonetheless": 8696,
      "##orn": 8697,
      "##gal": 8698,
      "motors": 8699,
      "demanding": 8700,
      "##sburg": 8701,
      "startled": 8702,
      "##brook": 8703,
      "ally": 8704,
      "generate": 8705,
      "caps": 8706,
      "ghana": 8707,
      "stained": 8708,
      "demo": 8709,
      "mentions": 8710,
      "beds": 8711,
      "ap": 8712,
      "afterward": 8713,
      "diary": 8714,
      "##bling": 8715,
      "utility": 8716,
      "##iro": 8717,
      "richards": 8718,
      "1837": 8719,
      "conspiracy": 8720,
      "conscious": 8721,
      "shining": 8722,
      "footsteps": 8723,
      "observer": 8724,
      "cyprus": 8725,
      "urged": 8726,
      "loyalty": 8727,
      "developer": 8728,
      "probability": 8729,
      "olive": 8730,
      "upgraded": 8731,
      "gym": 8732,
      "miracle": 8733,
      "insects": 8734,
      "graves": 8735,
      "1844": 8736,
      "ourselves": 8737,
      "hydrogen": 8738,
      "amazon": 8739,
      "katie": 8740,
      "tickets": 8741,
      "poets": 8742,
      "##pm": 8743,
      "planes": 8744,
      "##pan": 8745,
      "prevention": 8746,
      "witnessed": 8747,
      "dense": 8748,
      "jin": 8749,
      "randy": 8750,
      "tang": 8751,
      "warehouse": 8752,
      "monroe": 8753,
      "bang": 8754,
      "archived": 8755,
      "elderly": 8756,
      "investigations": 8757,
      "alec": 8758,
      "granite": 8759,
      "mineral": 8760,
      "conflicts": 8761,
      "controlling": 8762,
      "aboriginal": 8763,
      "carlo": 8764,
      "##zu": 8765,
      "mechanics": 8766,
      "stan": 8767,
      "stark": 8768,
      "rhode": 8769,
      "skirt": 8770,
      "est": 8771,
      "##berry": 8772,
      "bombs": 8773,
      "respected": 8774,
      "##horn": 8775,
      "imposed": 8776,
      "limestone": 8777,
      "deny": 8778,
      "nominee": 8779,
      "memphis": 8780,
      "grabbing": 8781,
      "disabled": 8782,
      "##als": 8783,
      "amusement": 8784,
      "aa": 8785,
      "frankfurt": 8786,
      "corn": 8787,
      "referendum": 8788,
      "varies": 8789,
      "slowed": 8790,
      "disk": 8791,
      "firms": 8792,
      "unconscious": 8793,
      "incredible": 8794,
      "clue": 8795,
      "sue": 8796,
      "##zhou": 8797,
      "twist": 8798,
      "##cio": 8799,
      "joins": 8800,
      "idaho": 8801,
      "chad": 8802,
      "developers": 8803,
      "computing": 8804,
      "destroyer": 8805,
      "103": 8806,
      "mortal": 8807,
      "tucker": 8808,
      "kingston": 8809,
      "choices": 8810,
      "yu": 8811,
      "carson": 8812,
      "1800": 8813,
      "os": 8814,
      "whitney": 8815,
      "geneva": 8816,
      "pretend": 8817,
      "dimension": 8818,
      "staged": 8819,
      "plateau": 8820,
      "maya": 8821,
      "##une": 8822,
      "freestyle": 8823,
      "##bc": 8824,
      "rovers": 8825,
      "hiv": 8826,
      "##ids": 8827,
      "tristan": 8828,
      "classroom": 8829,
      "prospect": 8830,
      "##hus": 8831,
      "honestly": 8832,
      "diploma": 8833,
      "lied": 8834,
      "thermal": 8835,
      "auxiliary": 8836,
      "feast": 8837,
      "unlikely": 8838,
      "iata": 8839,
      "##tel": 8840,
      "morocco": 8841,
      "pounding": 8842,
      "treasury": 8843,
      "lithuania": 8844,
      "considerably": 8845,
      "1841": 8846,
      "dish": 8847,
      "1812": 8848,
      "geological": 8849,
      "matching": 8850,
      "stumbled": 8851,
      "destroying": 8852,
      "marched": 8853,
      "brien": 8854,
      "advances": 8855,
      "cake": 8856,
      "nicole": 8857,
      "belle": 8858,
      "settling": 8859,
      "measuring": 8860,
      "directing": 8861,
      "##mie": 8862,
      "tuesday": 8863,
      "bassist": 8864,
      "capabilities": 8865,
      "stunned": 8866,
      "fraud": 8867,
      "torpedo": 8868,
      "##list": 8869,
      "##phone": 8870,
      "anton": 8871,
      "wisdom": 8872,
      "surveillance": 8873,
      "ruined": 8874,
      "##ulate": 8875,
      "lawsuit": 8876,
      "healthcare": 8877,
      "theorem": 8878,
      "halls": 8879,
      "trend": 8880,
      "aka": 8881,
      "horizontal": 8882,
      "dozens": 8883,
      "acquire": 8884,
      "lasting": 8885,
      "swim": 8886,
      "hawk": 8887,
      "gorgeous": 8888,
      "fees": 8889,
      "vicinity": 8890,
      "decrease": 8891,
      "adoption": 8892,
      "tactics": 8893,
      "##ography": 8894,
      "pakistani": 8895,
      "##ole": 8896,
      "draws": 8897,
      "##hall": 8898,
      "willie": 8899,
      "burke": 8900,
      "heath": 8901,
      "algorithm": 8902,
      "integral": 8903,
      "powder": 8904,
      "elliott": 8905,
      "brigadier": 8906,
      "jackie": 8907,
      "tate": 8908,
      "varieties": 8909,
      "darker": 8910,
      "##cho": 8911,
      "lately": 8912,
      "cigarette": 8913,
      "specimens": 8914,
      "adds": 8915,
      "##ree": 8916,
      "##ensis": 8917,
      "##inger": 8918,
      "exploded": 8919,
      "finalist": 8920,
      "cia": 8921,
      "murders": 8922,
      "wilderness": 8923,
      "arguments": 8924,
      "nicknamed": 8925,
      "acceptance": 8926,
      "onwards": 8927,
      "manufacture": 8928,
      "robertson": 8929,
      "jets": 8930,
      "tampa": 8931,
      "enterprises": 8932,
      "blog": 8933,
      "loudly": 8934,
      "composers": 8935,
      "nominations": 8936,
      "1838": 8937,
      "ai": 8938,
      "malta": 8939,
      "inquiry": 8940,
      "automobile": 8941,
      "hosting": 8942,
      "viii": 8943,
      "rays": 8944,
      "tilted": 8945,
      "grief": 8946,
      "museums": 8947,
      "strategies": 8948,
      "furious": 8949,
      "euro": 8950,
      "equality": 8951,
      "cohen": 8952,
      "poison": 8953,
      "surrey": 8954,
      "wireless": 8955,
      "governed": 8956,
      "ridiculous": 8957,
      "moses": 8958,
      "##esh": 8959,
      "##room": 8960,
      "vanished": 8961,
      "##ito": 8962,
      "barnes": 8963,
      "attract": 8964,
      "morrison": 8965,
      "istanbul": 8966,
      "##iness": 8967,
      "absent": 8968,
      "rotation": 8969,
      "petition": 8970,
      "janet": 8971,
      "##logical": 8972,
      "satisfaction": 8973,
      "custody": 8974,
      "deliberately": 8975,
      "observatory": 8976,
      "comedian": 8977,
      "surfaces": 8978,
      "pinyin": 8979,
      "novelist": 8980,
      "strictly": 8981,
      "canterbury": 8982,
      "oslo": 8983,
      "monks": 8984,
      "embrace": 8985,
      "ibm": 8986,
      "jealous": 8987,
      "photograph": 8988,
      "continent": 8989,
      "dorothy": 8990,
      "marina": 8991,
      "doc": 8992,
      "excess": 8993,
      "holden": 8994,
      "allegations": 8995,
      "explaining": 8996,
      "stack": 8997,
      "avoiding": 8998,
      "lance": 8999,
      "storyline": 9000,
      "majesty": 9001,
      "poorly": 9002,
      "spike": 9003,
      "dos": 9004,
      "bradford": 9005,
      "raven": 9006,
      "travis": 9007,
      "classics": 9008,
      "proven": 9009,
      "voltage": 9010,
      "pillow": 9011,
      "fists": 9012,
      "butt": 9013,
      "1842": 9014,
      "interpreted": 9015,
      "##car": 9016,
      "1839": 9017,
      "gage": 9018,
      "telegraph": 9019,
      "lens": 9020,
      "promising": 9021,
      "expelled": 9022,
      "casual": 9023,
      "collector": 9024,
      "zones": 9025,
      "##min": 9026,
      "silly": 9027,
      "nintendo": 9028,
      "##kh": 9029,
      "##bra": 9030,
      "downstairs": 9031,
      "chef": 9032,
      "suspicious": 9033,
      "afl": 9034,
      "flies": 9035,
      "vacant": 9036,
      "uganda": 9037,
      "pregnancy": 9038,
      "condemned": 9039,
      "lutheran": 9040,
      "estimates": 9041,
      "cheap": 9042,
      "decree": 9043,
      "saxon": 9044,
      "proximity": 9045,
      "stripped": 9046,
      "idiot": 9047,
      "deposits": 9048,
      "contrary": 9049,
      "presenter": 9050,
      "magnus": 9051,
      "glacier": 9052,
      "im": 9053,
      "offense": 9054,
      "edwin": 9055,
      "##ori": 9056,
      "upright": 9057,
      "##long": 9058,
      "bolt": 9059,
      "##ois": 9060,
      "toss": 9061,
      "geographical": 9062,
      "##izes": 9063,
      "environments": 9064,
      "delicate": 9065,
      "marking": 9066,
      "abstract": 9067,
      "xavier": 9068,
      "nails": 9069,
      "windsor": 9070,
      "plantation": 9071,
      "occurring": 9072,
      "equity": 9073,
      "saskatchewan": 9074,
      "fears": 9075,
      "drifted": 9076,
      "sequences": 9077,
      "vegetation": 9078,
      "revolt": 9079,
      "##stic": 9080,
      "1843": 9081,
      "sooner": 9082,
      "fusion": 9083,
      "opposing": 9084,
      "nato": 9085,
      "skating": 9086,
      "1836": 9087,
      "secretly": 9088,
      "ruin": 9089,
      "lease": 9090,
      "##oc": 9091,
      "edit": 9092,
      "##nne": 9093,
      "flora": 9094,
      "anxiety": 9095,
      "ruby": 9096,
      "##ological": 9097,
      "##mia": 9098,
      "tel": 9099,
      "bout": 9100,
      "taxi": 9101,
      "emmy": 9102,
      "frost": 9103,
      "rainbow": 9104,
      "compounds": 9105,
      "foundations": 9106,
      "rainfall": 9107,
      "assassination": 9108,
      "nightmare": 9109,
      "dominican": 9110,
      "##win": 9111,
      "achievements": 9112,
      "deserve": 9113,
      "orlando": 9114,
      "intact": 9115,
      "armenia": 9116,
      "##nte": 9117,
      "calgary": 9118,
      "valentine": 9119,
      "106": 9120,
      "marion": 9121,
      "proclaimed": 9122,
      "theodore": 9123,
      "bells": 9124,
      "courtyard": 9125,
      "thigh": 9126,
      "gonzalez": 9127,
      "console": 9128,
      "troop": 9129,
      "minimal": 9130,
      "monte": 9131,
      "everyday": 9132,
      "##ence": 9133,
      "##if": 9134,
      "supporter": 9135,
      "terrorism": 9136,
      "buck": 9137,
      "openly": 9138,
      "presbyterian": 9139,
      "activists": 9140,
[...]
